#version: 0.2
e n
e s</w>
t i
t h
o n
a n
o u
i n
o n</w>
r e
e r
th e</w>
d e</w>
o r
q u
r o
i s
a r
en t</w>
l e</w>
i t
e m
t r
o m
s i
a ti
e r</w>
i s</w>
e s
a l
l a</w>
o f</w>
e t</w>
l i
t o</w>
c on
a i
e n</w>
e u
an d</w>
l es</w>
a t
r e</w>
s u
qu e</w>
c e</w>
e l
p ro
on s</w>
i n</w>
a t</w>
e d</w>
n e</w>
a u
p o
a c
a v
d es</w>
a s</w>
a l</w>
r é
e c
ati on</w>
om m
i c
in g</w>
en t
em ent</w>
ti on</w>
a n</w>
i l
d i
c i
a m
ou s</w>
p l
th at</w>
a b
r i
s e</w>
n o
a p
a g
p or
d é
c h
o r</w>
t e</w>
ro p
ou r</w>
e x
s t
an t</w>
e v
e t
an s</w>
p ar
i t</w>
es t</w>
o p
w h
a s
m e</w>
t u
tr e</w>
re s
l y</w>
u ne</w>
u s
n i
d u</w>
i m
u n</w>
a r</w>
si on</w>
f f
t s</w>
o l
f or</w>
a d
r es</w>
ou r
in t
v i
T h
v e</w>
f or
c omm
E u
on t</w>
u l
d ans</w>
p our</w>
C omm
Eu rop
m a
c om
u n
m ent</w>
d u
qu i</w>
g r
m o
u s</w>
b e</w>
a u</w>
v er
p r
n ous</w>
i l</w>
eu r</w>
en d
si d
l d</w>
i r</w>
ar e</w>
a in
th is</w>
it é</w>
em b
ai t</w>
l o
w e</w>
u r
Comm is
ent s</w>
b e
g i
au x</w>
av e</w>
no t</w>
é s</w>
ou n
ou ld</w>
é t
c l
s o
b u
ti ons</w>
po li
p as</w>
r s</w>
su r</w>
h ave</w>
er s</w>
por t
ati ons</w>
f i
é r
p er
po s
it h</w>
p ré
c es</w>
s e
th e
ai re</w>
it y</w>
q u</w>
ou t</w>
d e
por t</w>
v o
w ith</w>
Commis sion</w>
s h
ti n
eu rop
europ é
en ce</w>
e an</w>
p ar</w>
r a
p u
ac c
at e</w>
ic h</w>
on n
d o
d is
wh ich</w>
eu rs</w>
an ce</w>
c o
sid ent</w>
ab le</w>
Europ ean</w>
pl us</w>
c er
el le</w>
b y</w>
Th e</w>
s er
t er
a y
ni on</w>
er e</w>
il l</w>
é e</w>
é g
d ev
g h
it s</w>
ti c
tr i
l e
n e
p e
w ill</w>
l ement</w>
r ap
t at
U nion</w>
c r
re c
d s</w>
s o</w>
qu es</w>
P ar
s tr
f in
s i</w>
en s</w>
è re</w>
h as</w>
m es</w>
k e</w>
m an
es s
o b
m in
o u</w>
w or
al l</w>
ou v
m on
et te</w>
g u
p ec
con om
t er</w>
m ar
t en
a y</w>
s ti
ati on
e ff
th er</w>
j e</w>
or e</w>
t o
is e</w>
e l</w>
ay s</w>
po si
im port
int er
s t</w>
p ri
s ou
t es</w>
en ne</w>
é es</w>
è s</w>
us t</w>
Europ e</w>
ti ve</w>
a le</w>
b i
ag e</w>
p re
conom i
en c
s ont</w>
m e
is s
av e
tin g</w>
en ti
n ation
an g
d em
so ci
c ette</w>
M r</w>
P re
poli ti
du c
g o
eu x</w>
ai n</w>
é c
m i
on e</w>
is i
ê tre</w>
re l
w ould</w>
t é</w>
t ed</w>
C on
for m
ro m</w>
t a
v en
J e</w>
t e
f rom</w>
europé enne</w>
si b
it e</w>
al ly</w>
d er</w>
c e
p res
al so</w>
qu es
com p
ave c</w>
el op
u m
bu t</w>
c oun
u c
p ays</w>
é n
v es</w>
f r
p on
sh ould</w>
sti tu
t h</w>
ét é</w>
an s
ol u
es s</w>
f o
em ents</w>
pro b
Pre sident</w>
m emb
tat s</w>
ai res</w>
d er
ma is</w>
al is
t ec
é ri
con cer
re r</w>
i g
j ec
é l
u e</w>
m ust</w>
I l</w>
a ce</w>
s es</w>
tr a
em p
b li
M on
f u
be en</w>
di ff
m ore</w>
W e</w>
p li
ver n
su p
s ec
al ement</w>
ti es</w>
el les</w>
L a</w>
tu re</w>
l a
tr ans
ar g
fin an
p en
N ous</w>
P ré
li am
t out</w>
s y
ci p
an ts</w>
o y
an d
re g
or s</w>
con s
posi tion</w>
M emb
t ou
f ic
ar y</w>
a is</w>
el y</w>
É tats</w>
c an</w>
w as</w>
e ar
si eur</w>
es e</w>
di rec
as s
Mon sieur</w>
ai l
cl u
f ait</w>
the ir</w>
o w
c re
p eu
po in
politi que</w>
pu bli
is t
gh t</w>
p our
f ac
comm e</w>
k ing</w>
par tic
m et
L e</w>
h i
tr av
d ro
au s
cer t
ar d</w>
l è
it u
w e
au t
in e</w>
import ant</w>
l u
c h</w>
liam ent</w>
I t</w>
qu i
d g
pro pos
a d</w>
rap port</w>
f on
m ê
m il
in v
Par liament</w>
an n
per s
Par lement</w>
i r
ques tion</w>
a f
pré s
é conomi
v ous</w>
pro c
il l
g n
pos sib
nation al</w>
a m</w>
v e
tri es</w>
tr es</w>
y ou</w>
al l
S tat
e p
i v
h u
j our
Pré sident</w>
ati ve</w>
d o</w>
a se</w>
Stat es</w>
Memb er</w>
o c
li ke</w>
o ther</w>
in s</w>
acc or
sy st
in g
ch ang
I n</w>
c our
al es</w>
e ar</w>
con t
b ec
the y</w>
re port</w>
memb res</w>
d ing</w>
l is
re d</w>
n ouv
res pon
C h
pro gr
s on</w>
Con se
th ere</w>
at ed</w>
c ri
ti me</w>
coun tries</w>
ver y</w>
en g
ég alement</w>
ai ent</w>
no w</w>
au se</w>
mê me</w>
C oun
l eur</w>
L es</w>
am e</w>
l em
r ou
ser v
on g</w>
Conse il</w>
om e</w>
E U</w>
ci l</w>
it és</w>
Coun cil</w>
par ti
ab il
c ol
s olu
en tre</w>
in d
m ents</w>
li b
o se</w>
av ons</w>
ar i
l eurs</w>
europé en</w>
el s</w>
ap pro
aus si</w>
f aire</w>
s itu
in i
ev er</w>
or i
Th is</w>
su r
th ese</w>
su l
w i
finan ci
gr ou
ch e</w>
is es</w>
isi on</w>
par t</w>
vi r
d ec
d ra
re ment</w>
s p
concer n
comm un
su b
si ons</w>
bi en</w>
as t</w>
b et
pr in
an is
for e</w>
c it
b o
c u
v ou
ad op
poin t</w>
es ti
pro duc
wor k</w>
re m
prin cip
r ait</w>
ic i
con tr
em pl
r en
ab out</w>
c y</w>
op le</w>
an de</w>
ag re
et s</w>
j u
d am
o ir</w>
E n</w>
U n
a ff
au tres</w>
situ ation</w>
ent e</w>
o d</w>
s el
am end
ob jec
i re</w>
progr am
wh at</w>
ain e</w>
dé v
u ni
a i</w>
no tre</w>
bu dg
s emb
m es
t ant</w>
ne w</w>
tr y</w>
elop p
ic ul
r u
wh o</w>
m ati
k s</w>
t ous</w>
é v
è res</w>
om b
tic al</w>
f er
do it</w>
pro tec
dév elopp
on ly</w>
or d
il s</w>
i d
ti v
pe ople</w>
tu r
end re</w>
fi r
ne ed</w>
at t
tri bu
mes u
n on</w>
peu t</w>
con tin
c ap
es t
sec t
ic es</w>
g h</w>
in form
an c
in stitu
dé c
en ces</w>
en vir
I n
is l
tr ès</w>
res pec
ai l</w>
poli cy</w>
is su
possib le</w>
m ent
w el
c ro
n o</w>
f av
p end
en er
an ti
v is
cert ain
le g
mar ch
co op
e conomi
g y</w>
i f</w>
al i
cr ati
j us
m y</w>
con tre</w>
dev elop
r is
h e
c ur
or g
grou p
au c
fo is</w>
ul ation</w>
d on
f s</w>
f a
v er</w>
bec ause</w>
f l
an t
d ay</w>
è me</w>
av oir</w>
g re
wi th
u p</w>
a re
mar k
ré gi
ab les</w>
ai d</w>
str uc
gh ts</w>
prob lè
g ou
su ch</w>
u ti
on al</w>
n omb
er ci
é li
e w</w>
d om
o i</w>
en n
su re</w>
con n
rap port
at es</w>
al ité</w>
is sion</w>
s eu
M ad
c ré
ac tu
enc y</w>
ati n
ap pli
man i
al s</w>
li m
mil li
atin g</w>
economi c</w>
ac tion</w>
dro its</w>
dev ons</w>
re pr
an i
objec ti
t ro
n éc
gou vern
néc ess
str at
ev e</w>
eff ec
com pl
o ff
th an</w>
acc ep
sup port</w>
h o
an y</w>
w ay</w>
no s</w>
d ed</w>
ar ds</w>
en d</w>
e y</w>
cur r
c or
r è
f au
man y</w>
publi c</w>
U E</w>
en tr
in to</w>
res s
we en</w>
an te</w>
s pec
te e</w>
int e
s ans</w>
ex am
f un
ra is
gi e</w>
bet ween</w>
m s</w>
poli tical</w>
r a</w>
a si
es p
ev er
développ ement</w>
j et</w>
c an
partic ul
ter r
b il
th ose</w>
tec h
ta ke</w>
A m
ma ke</w>
l arg
m en
mo st</w>
vo ir</w>
u li
si m
e u</w>
c us
soci al</w>
accor d</w>
par t
direc tive</w>
prés ent
int en
m é
wh en</w>
ow ever</w>
v al
re fore</w>
d ont</w>
t és</w>
at u
ma j
p le</w>
de b
in clu
partic uli
d onn
con tribu
s ome</w>
li g
com e</w>
ini ti
A l
d eux</w>
s a</w>
solu tion</w>
c ar
ce la</w>
dé b
ag r
ti onn
protec tion</w>
met tre</w>
or is
or der</w>
hu i</w>
enc ore</w>
jour d</w>
go vern
w ere</w>
pl ace</w>
con stitu
cit oy
so it</w>
pers onn
con di
gu e</w>
the m</w>
be li
min is
th ing</w>
eff or
s éc
der ni
re gi
h e</w>
ri ghts</w>
ind us
ain si</w>
dra is</w>
B u
vou drais</w>
séc ur
t emp
trav ail</w>
s omm
rapport eur</w>
rè g
si on
lo b
don c</w>
re st
on ne</w>
s s
be ing</w>
c ul
el l
di re</w>
su m
sécur ité</w>
g ar
ati ves</w>
ac t</w>
l ev
serv ices</w>
it tee</w>
pro m
on g
dé mo
pre mi
inter national</w>
vo te</w>
politi ques</w>
org anis
ch o
l ég
économi que</w>
re ad
pro position</w>
pe ti
e m</w>
ma de</w>
g e
t y</w>
mo ins</w>
cl ear</w>
ô le</w>
ven tion</w>
po p
program me</w>
el lement</w>
con sid
temp s</w>
p h
pro du
the refore</w>
iv ent</w>
ain st</w>
ac h
c ad
au jourd</w>
march é</w>
in cre
ear s</w>
por ts</w>
ent repr
di t</w>
lo w
ac h</w>
l ong</w>
citoy ens</w>
b le</w>
an ces</w>
f in</w>
ag ainst</w>
ev en</w>
v ent</w>
f re
ex t</w>
c as</w>
mesu res</w>
fir st</w>
o ver</w>
our ces</w>
t w
d ou
nouv e
Commis sion
us si
coun try</w>
di es</w>
o ù</w>
g én
d ic
budg et</w>
fau t</w>
ess enti
lo c
d es
ap p
mark et</w>
dam ent
beli eve</w>
th in
i e</w>
wor ld</w>
y ears</w>
g ni
it ed</w>
dis cus
pl u
um an</w>
p ass
ti z
po se</w>
semb le</w>
er ation</w>
si gn
re u
sh i
gr ation</w>
su s</w>
un der
comm ission</w>
ni ve
du r
t at</w>
cad re</w>
do ivent</w>
m at
chang e</w>
ab or
pro vi
institu tions</w>
wel l</w>
g lob
at s</w>
uc h</w>
em ent
s or
j ust</w>
su ff
o ci
c ould</w>
fu ture</w>
Commission er</w>
iss ance</w>
ques tions</w>
fac t</w>
su is</w>
me a
s ay</w>
h omm
b r
f ul
ér ation</w>
j o
j ou
uti lis
mati ère</w>
ci tiz
pen se</w>
ent ly</w>
é qu
ta k
v re</w>
develop ment</w>
tu n
wh ere</w>
posi tions</w>
abil ité</w>
empl oy
h ad</w>
con clu
at eurs</w>
dem o
mani ère</w>
lo w</w>
h el
Comm un
mon de</w>
h a
au tre</w>
W h
financi al</w>
inform ation</w>
propos al</w>
R ussi
issu e</w>
for c
im p
C e</w>
cl ai
af in</w>
p ou
tw o</w>
ing s</w>
j à</w>
a st
at ten
an k</w>
dé jà</w>
v ed</w>
g ro
ou gh</w>
as ed</w>
mon di
A s</w>
c ar</w>
ex emp
es si
ce p
é ti
ex t
c et</w>
group e</w>
condi tions</w>
f is
re at
démo crati
m is
eu re</w>
M ais</w>
sou ti
u m</w>
isi ons</w>
am ment</w>
res s</w>
ri ght</w>
n ég
ser a</w>
respec t</w>
s an
ag es</w>
h uman</w>
h is</w>
Th at</w>
ac k</w>
g e</w>
su res</w>
in st
pro f
or y</w>
read y</w>
Bu t</w>
in di
diff ér
al ity</w>
vi ol
p a
si dé
su c
import ance</w>
ver s</w>
c entr
én er
jus ti
ver s
is te</w>
thin k</w>
ré pon
y ear</w>
dro it</w>
è rement</w>
u es</w>
m uch</w>
n or
v ing</w>
F r
somm es</w>
ow n</w>
qu oi</w>
fic ation</w>
s ame</w>
at er</w>
r o</w>
con sidé
u se</w>
re t
spec i
n u
respon s
l er</w>
conn a
ch er
citiz ens</w>
op e</w>
vi ew</w>
olu tion</w>
pu is</w>
nive au</w>
alis ation</w>
th rou
it er
isl ation</w>
do es</w>
Comm ittee</w>
œ u
im pl
qu el
dé f
n um
A n
fu l</w>
ail leurs</w>
can not</w>
ét ait</w>
b er</w>
b on</w>
lib er
to day</w>
ain es</w>
ic al</w>
ar m
deb ate</w>
oun d</w>
re sul
agr icul
eff ic
h ere</w>
l l</w>
D ans</w>
personn es</w>
et y</w>
ten ir</w>
pré c
s in
no lo
ro le</w>
ne e
ho w</w>
R e
i ent</w>
a k
cour s</w>
m on</w>
op por
jour s</w>
w n</w>
for m</w>
problè me</w>
pr endre</w>
mea sures</w>
or s
w ant</w>
si gni
Mad ame</w>
effor ts</w>
concer ne</w>
agre ement</w>
y p
so li
ter n
it er</w>
pl y</w>
al ready</w>
ur ity</w>
t able</w>
cert ain</w>
ar ly</w>
tech nolo
b es
T ur
bo th</w>
diff icul
to o</w>
envir onn
ci d
t eurs</w>
av ant</w>
él ec
or ity</w>
ac ti
th en</w>
abil ity</w>
déb at</w>
go od</w>
ac hi
er a</w>
syst ème</w>
con f
i ce</w>
mo y
s aid</w>
ain s</w>
v ue</w>
pro g
enn es</w>
su iv
sou ha
fr on
cons équ
sti ll</w>
qu er</w>
se in</w>
bes o
pro p
eng ag
ex c
tou te</w>
inv esti
v en</w>
el ec
int ér
ou p</w>
intér ê
re as
gén ér
du re</w>
re us
qu elle</w>
p i
po w
re qui
finan c
parti cip
l ors</w>
en ir</w>
syst em</w>
r aient</w>
b an
v ement</w>
int ro
tur al</w>
c ation</w>
gouvern ement</w>
cri min
al th</w>
s en
gu es</w>
certain s</w>
tr uc
am éli
ti onal</w>
strat é
pri v
ag it</w>
with in</w>
no t
si ve</w>
exemp le</w>
sel f</w>
col lè
ré g
ma y</w>
h ar
envir on
in es</w>
i le</w>
ol o
seu lement</w>
diff er
b onne</w>
inter nation
E n
p ouv
par ce</w>
f e
proc é
op ini
cour se</w>
is h</w>
reu x</w>
in str
s pe
terr oris
ac tiv
tou tes</w>
shi p</w>
com b
É tat</w>
col l
m al
N o
om e
en sure</w>
homm e</w>
entrepr ises</w>
g ener
un der</w>
Th ere</w>
be h
ener gy</w>
comm on</w>
k now</w>
m ise</w>
tak en</w>
suc c
atten tion</w>
e z</w>
I s
Un is</w>
ic i</w>
ann ées</w>
p ai
f em
h é
an tes</w>
pr is</w>
ci es</w>
b asi
ord in
im pro
per met
lev el</w>
contin u
pres sion</w>
al u
m or
pl an</w>
au th
europé ens</w>
e qu
m er</w>
gro w
jec t</w>
c eux</w>
n ec
dé cl
st and
ex pl
m ul
Ch in
ob lig
particul ar</w>
m is</w>
pré sident</w>
ac k
coop eration</w>
coop ération</w>
or ité</w>
s c
concern ant</w>
O n</w>
gr ande</w>
r ès</w>
oc cu
nec ess
enc our
rais on</w>
ac y</w>
tr ic
M rs</w>
P our</w>
per i
m om
comp te</w>
t al
li c
nomb re</w>
semb l
t ement</w>
y ing</w>
leg al</w>
problè mes</w>
exam ple</w>
sect eur</w>
ou se</w>
indus tri
l ast</w>
res t</w>
wh e
pu t</w>
ac tions</w>
or ités</w>
ai de</w>
ent es</w>
c ase</w>
poin ts</w>
cap it
h ope</w>
produc tion</w>
p éri
b ase</w>
ap rès</w>
gar anti
l ed</w>
ati s
th re
nég oci
H owever</w>
cr is
rel ations</w>
throu gh</w>
cons omm
S u
g g
pen s
dom aine</w>
qu ement</w>
qu el</w>
mo i</w>
e d
pro mo
auc oup</w>
x i
as pec
an im
pl e
cr ise</w>
al o
S i</w>
duc tion</w>
ven ir</w>
lem ent
proc ess</w>
pré sid
rem erci
m ement</w>
é ch
ou t
om en</w>
v ision</w>
no v
I f</w>
it es</w>
int é
se con
se e</w>
cris is</w>
fi c</w>
ori ties</w>
v ic
for me</w>
le ad
commun aut
œu vre</w>
f t</w>
an ds</w>
lu t
es sus</w>
au v
Un ited</w>
o le</w>
U S</w>
wh y</w>
eu ro</w>
sec urity</w>
proc essus</w>
en e
parti e</w>
Commun ity</w>
le m</w>
respon sib
s ome
eff et</w>
e conom
with out</w>
ma inten
A s
prob lem</w>
M me</w>
san té</w>
v ol
minis tr
c i</w>
glob al</w>
l ess</w>
dev rait</w>
in f
y our</w>
tou jours</w>
é ment</w>
trans par
s ous</w>
strat e
to t
av ant
mil it
particuli er</w>
t en</w>
are a</w>
f ar</w>
prob lem
not amment</w>
f am
al f</w>
pour quoi</w>
n er</w>
be aucoup</w>
go ti
ou s
s avoir</w>
c lo
fon c
considé r
lo o
con st
vi e</w>
f ace</w>
n atu
me ans</w>
tic le</w>
f ol
h eu
mom ent</w>
P ro
ser i
for ce</w>
es sion</w>
est ab
num ber</w>
pro ch
l ors
reat y</w>
ré sul
in s
soli d
r ôle</w>
c el
au g
li gn
s af
li eu</w>
f ai
en semble</w>
i a</w>
trans port</w>
ad ministr
S t
tr ouv
occu p
pro ce
peu vent</w>
larg e</w>
com peti
e la</w>
la quelle</w>
possib il
initi ative</w>
opini on</w>
ne goti
i c</w>
ren forc
t ly</w>
pop ulation</w>
problem s</w>
k ed</w>
pou voir</w>
pl ac
contin ue</w>
mesu re</w>
necess ary</w>
g ent
A f
k ey</w>
h owever</w>
L is
dem ande</w>
th er
th ough</w>
re pres
é qui
b l
ann ée</w>
l s</w>
gent lem
d et
I r
e p</w>
inv ol
cont ro
tra de</w>
alo gue</w>
estab lis
s et</w>
con struc
beso in</w>
de puis</w>
program mes</w>
gentlem en</w>
ti mes</w>
as su
ex te</w>
re présent
C ette</w>
ser ait</w>
cro issance</w>
no m</w>
is ation</w>
particul arly</w>
be fore</w>
te fois</w>
j our</w>
r ont</w>
f ur
Q u
issu es</w>
ci vi
duc ation</w>
comm it
gi es</w>
pe u</w>
as k</w>
s m
fav eur</w>
économi e</w>
d re</w>
o f
A r
nouv elle</w>
fem mes</w>
ur g
souti en</w>
govern ment</w>
dec ision</w>
um ents</w>
ré solution</w>
reg ard</w>
commun ic
con sum
déc ision</w>
H ouse</w>
employ ment</w>
l ong
ti ves</w>
c a
he alth</w>
n ing</w>
ch arg
ol d</w>
C ela</w>
la w</w>
appro pri
w ard</w>
fon dament
me di
ar ri
w omen</w>
nouve au</w>
ér ic
sp é
milli ons</w>
em s</w>
pour rait</w>
ou ver
iss ement</w>
pu is
re ig
c all
sect or</w>
av enir</w>
décl ar
oun t</w>
lu i</w>
as es</w>
gi ven</w>
oppor tun
pend ant</w>
gre at</w>
su jet</w>
t ation</w>
com prom
spé ci
objecti fs</w>
am e
so ient</w>
sin ce</w>
re cher
ag ne</w>
w ays</w>
ch a
hi gh
gi ve</w>
aug ment
objecti f</w>
ér ence</w>
in de
vi ce</w>
di alogue</w>
su ite</w>
Mad am</w>
h er
n es</w>
re co
tu res</w>
m er
empl oi</w>
s ol
ci r
al ors</w>
are as</w>
cr u
whe ther</w>
er ic
Commis s
hé sion</w>
nécess aire</w>
Pré sid
grow th</w>
con fi
im mi
tu de</w>
me ill
it able</w>
o rer</w>
dé pu
ac ité</w>
F in
im pli
Am eric
ét aire</w>
ter me</w>
d ly</w>
environn ement</w>
Chin a</w>
ar r
sid ency</w>
i es</w>
A u
T reaty</w>
ig h</w>
ment al</w>
o ver
b al
pro positions</w>
at ely</w>
Commiss aire</w>
G rou
ô t</w>
ét ab
comm une</w>
is t</w>
F or</w>
i dé
appli cation</w>
investi ss
ave z</w>
comm erci
amend ements</w>
re comm
ju ri
a is
reg ul
fa ç
t or
comm iss
o s
bet ter</w>
tra ité</w>
é tr
n i</w>
E l
ten u</w>
collè gues</w>
af ter</w>
pouv ons</w>
vi ent</w>
fur ther</w>
ame work</w>
hel p</w>
e w
D e</w>
t ent</w>
dé fin
indi vi
re f
Is ra
t yp
ear ly</w>
or ig
ap pe
econom y</w>
fr ic
do m</w>
res olution</w>
règ lement</w>
us ed</w>
c at
s ci
e i
é rer</w>
mat ter</w>
st ar
ag ain</w>
ful ly</w>
iss ent</w>
ex i
produ its</w>
imp act</w>
par ties</w>
k ers</w>
straté gie</w>
d ang
én é
signi fic
st ate</w>
v a</w>
am bi
la dies</w>
ré alis
Grou p</w>
nee ds</w>
ter ms</w>
l à</w>
ex tr
vo tre</w>
ex ist
As sembl
b ene
indivi du
b les</w>
Assembl ée</w>
éri eur</w>
si de</w>
n ext</w>
o i
eu xi
T r
d re
m enti
ru les</w>
g o</w>
ten ti
u i</w>
go ing</w>
L i
f our
sou lign
fi ed</w>
d ate</w>
pro t
par ten
wh ile</w>
con v
th ank</w>
ré du
differ ent</w>
in nov
juri di
a w
justi ce</w>
av i
h ap
al y
in fr
d el
mo di
impl ement
n er
ous ly</w>
pop ul
crati c</w>
premi ère</w>
é vi
inv est
curr ent</w>
éner gie</w>
pr ati
inclu ding</w>
publi que</w>
ab lement</w>
g en
l in
at te
r ons</w>
agre e</w>
aff ec
mé di
fon ds</w>
si eurs</w>
pri x</w>
faç on</w>
prés ent</w>
d one</w>
am éric
v ari
basi s</w>
propos als</w>
re li
cr acy</w>
quel ques</w>
amend ments</w>
ter min
o de</w>
fi er</w>
étr ang
por te</w>
sub st
b éné
contr ôle</w>
économi ques</w>
gu ar
d ent</w>
Memb ers</w>
p ay
ég ard</w>
exc ell
soci ale</w>
milli on</w>
p ur
nouve aux</w>
pow er</w>
rap p
ex ig
Ch ine</w>
i de
ma king</w>
s ed</w>
oc ca
ri ons</w>
avant age</w>
p ê
resul t</w>
reig n</w>
dem and
gr and</w>
ré e</w>
c lim
o is</w>
al im
encour ag
beh alf</w>
poli cies</w>
id enti
co ordin
ex pri
N or
in d</w>
lib re</w>
c am
z e</w>
av ing</w>
et ary</w>
nouv elles</w>
nomb reux</w>
ter m</w>
s atis
m an</w>
thre e</w>
l ons</w>
s s</w>
n am
ré c
ch il
secon d</w>
G re
p tion</w>
fav our</w>
pec i
po l
ig n
commiss aire</w>
w ards</w>
gi que</w>
tro is</w>
c ent
s û
règ les</w>
st at
ve ill
fr amework</w>
ever y
en f
po tenti
h igh</w>
prog ress</w>
ad d
dem an
r ent</w>
in t</w>
av is</w>
av ait</w>
recher che</w>
enn ent</w>
eu ro
bec ome</w>
is ter</w>
m a</w>
régi ons</w>
es tion</w>
solid ar
b ased</w>
Wh at</w>
co û
particuli èrement</w>
appro ach</w>
ear ch</w>
al esti
terr it
P ar</w>
sel on</w>
f ew</w>
ex pres
mo is</w>
t ée</w>
sel ves</w>
di d</w>
do wn</w>
ist ance</w>
leg islation</w>
h ist
v ér
l ine</w>
fre e
U ne</w>
ser ont</w>
ati f</w>
b us
e k</w>
il ity</w>
G o
inter n
au té</w>
présid ence</w>
qu é</w>
grou p</w>
trav ail
régi on</w>
dé pend
posi tive</w>
esp ère</w>
pro jet</w>
inte rest
M essi
princip e</w>
Messi eurs</w>
h ed</w>
adop ted</w>
as soci
K o
ur al</w>
dam es</w>
négoci ations</w>
is m</w>
auc un</w>
amend ement</w>
effec tive</w>
er re</w>
intérê t</w>
B ar
europé ennes</w>
pr ès</w>
th ir
wor king</w>
ap port
ge ther</w>
end s</w>
M es
M ar
con se
m ain</w>
ti c</w>
man ag
m u
li f
N ations</w>
pos er</w>
pres ent</w>
lut te</w>
plu sieurs</w>
fol low
s éri
o w</w>
f éli
achi ev
g et</w>
mondi ale</w>
incre ase</w>
res ources</w>
Mes dames</w>
ti ens</w>
at ti
ch er</w>
aspec ts</w>
t ab
E t</w>
dépu tés</w>
on ce</w>
for ward</w>
st ain
h on
ri t</w>
h ing</w>
d y</w>
fl exi
St ate</w>
es peci
z one</w>
fer ence</w>
tro p</w>
qu alité</w>
especi ally</w>
re ly</w>
dur ing</w>
hu man
communic ation</w>
cro is</w>
o t
prés ente</w>
cel ui</w>
c elle</w>
M in
re al</w>
an aly
re conna
expl o
ti s
to gether</w>
premi er</w>
Présid ente</w>
l ab
s ouv
c ause</w>
fun dament
res te</w>
as se</w>
bus in
viol ence</w>
ch ose</w>
démocrati e</w>
provi de</w>
o li
ti on
suff is
re v
du e</w>
clai rement</w>
t our
bene f
ord re</w>
be g
garanti r</w>
ap pr
soci été</w>
guar an
ad di
ess es</w>
s ens</w>
wel come</w>
dis crimin
k no
ab solu
opportun ity</w>
le ast</w>
a k</w>
gr at
cha que</w>
an other</w>
C es</w>
w ish</w>
j ets</w>
strate gy</w>
f ail
su gg
pers pec
mo d
can di
concern ed</w>
mainten ant</w>
ind re</w>
maj or</w>
t aux</w>
G er
all eng
î tre</w>
ress ources</w>
consomm ateurs</w>
ex clu
i li
wh ole</w>
to wards</w>
bu il
ta x
lég islation</w>
str eng
s em
demo cracy</w>
at eur</w>
reg ulation</w>
is me</w>
d avantage</w>
ch alleng
u nion</w>
con curr
t ali
vo ted</w>
con sul
b our
ac t
internation ale</w>
il y</w>
reus es</w>
S ch
Russi a</w>
fis c
fic i
il le</w>
I ra
qu ant</w>
ever y</w>
agricul ture</w>
l an
mul ti
A u</w>
m et</w>
év alu
c li
abor d</w>
fre e</w>
A fric
ad v
d i</w>
du res</w>
end a</w>
gre ater</w>
Russi e</w>
some thing</w>
remerci er</w>
st and</w>
nécess ité</w>
ic h
auth orities</w>
march és</w>
accep table</w>
ra ther</w>
e g
él ev
aut orités</w>
it self</w>
assu rer</w>
ma ins</w>
publi c
larg ement</w>
er ce</w>
m ission</w>
acc ount</w>
i de</w>
sh or
pr is
m it</w>
An d</w>
Fr ance</w>
ar ticle</w>
demo cratic</w>
vis ant</w>
S e
princip le</w>
communaut aire</w>
Th ey</w>
ai rs</w>
ex pli
p auv
ta king</w>
jus qu</w>
solu tions</w>
j eu
comp ani
st s</w>
gr an
re mar
ist an</w>
negoti ations</w>
propos ed</w>
en ing</w>
t ôt</w>
organis ations</w>
fonc tionn
fin d</w>
ex iste</w>
for mes</w>
har mon
seri ous</w>
sci enti
r an
T ou
alim ent
inte rest</w>
sm all</w>
vo y
ain ing</w>
d ès</w>
ser vice</w>
op er
tu rel
u p
inf lu
appro che</w>
derni er</w>
acc ess</w>
res earch</w>
indus try</w>
import ante</w>
lors que</w>
él é
certain es</w>
en s
ex pec
in c
D i
thir d</w>
e red</w>
occa sion</w>
diff ici
sub ject</w>
liber té</w>
tra di
enf ants</w>
tr ou
emb er</w>
fa is
speci fic</w>
Pre sidency</w>
souv ent</w>
ti f</w>
iss ant</w>
rég lement
difficul t</w>
s al
ann u
interest s</w>
rec ent</w>
acc ès</w>
alesti ni
procé dure</w>
reus ement</w>
exam in
comp ét
as truc
cor rec
instr uments</w>
emb re</w>
o p</w>
lég isl
memb re</w>
pr ises</w>
re ally</w>
contribu tion</w>
regi on</w>
auc une</w>
ti que</w>
ec h
responsib ility</w>
gener al</w>
produc ts</w>
su stain
vo té</w>
répon se</w>
pê che</w>
an ci
initi atives</w>
off ici
b ack</w>
r ati
ent ed</w>
end ant</w>
de fin
A t</w>
infr astruc
ét ant</w>
u ment</w>
trav ailleurs</w>
c all</w>
Comm e</w>
u re</w>
ar s</w>
sur tout</w>
environ mental</w>
er ing</w>
reas on</w>
incre as
soci ety</w>
chang es</w>
ti ers</w>
it ement</w>
adop tion</w>
Con vention</w>
th ers</w>
Th ese</w>
k e
améli or
ri r</w>
v eu
aff aires</w>
pai x</w>
vol on
donn é</w>
cl early</w>
s é
de f
al ways</w>
reg ar
Ir an</w>
d at
mon ey</w>
M o
immi gration</w>
fac il
ti m
excell ent</w>
saf ety</w>
qu els</w>
p s</w>
él arg
th s</w>
e ting</w>
in qui
sh all</w>
respons abilité</w>
z ed</w>
on es</w>
mo der
b ur
sou tenir</w>
ing le</w>
o ire</w>
rap id
El le</w>
ab ly</w>
U n</w>
vo ie</w>
i x</w>
de al</w>
ob serv
l ing</w>
mati que</w>
on c
fundament al</w>
financ ement</w>
uni que</w>
discus sion</w>
progr ès</w>
dre n</w>
natu re</w>
for ces</w>
b ro
aff ir
améli orer</w>
y et</w>
actu ellement</w>
comm erce</w>
cré ation</w>
o ds</w>
essenti al</w>
P er
direc tion</w>
free dom</w>
clim ate</w>
it ation</w>
ter mes</w>
form s</w>
qui e</w>
cru ci
instr ument</w>
d ence</w>
ad ap
donn er</w>
ma in
e ach</w>
wor kers</w>
ê te</w>
r y</w>
ré f
eff ici
pl é
of ten</w>
min im
qu ality</w>
end ing</w>
ou tre</w>
gr é</w>
k r
v it
op pos
ol l
tr an
achi eve</w>
intro du
ris k</w>
compani es</w>
ori ent
l es
regi ons</w>
cir c
h ab
construc tion</w>
capit al</w>
ri en</w>
derni ère</w>
form ation</w>
agr ic
is ed</w>
bil ité</w>
ex er
dé s
inform ations</w>
typ e</w>
donn ées</w>
mi eux</w>
contro l</w>
M al
chil dren</w>
h ear
actu elle</w>
intérê ts</w>
loo k</w>
coll ec
a ise</w>
juridi que</w>
di ri
effic ace</w>
sib le</w>
conséqu ent</w>
utilis ation</w>
v is</w>
h and</w>
g estion</w>
A ff
A c
financi ère</w>
fi x
A g
p rec
it t
cul ture</w>
h au
tur n</w>
v u</w>
re ven
st u
h er</w>
accor ds</w>
re form</w>
extr ê
dg e</w>
st ates</w>
lib ér
concurr ence</w>
on ed</w>
ation al</w>
pe ace</w>
i en</w>
au rait</w>
l at
F un
environ ment</w>
comm ent</w>
dev raient</w>
constitu e</w>
govern ments</w>
pré occup
è mes</w>
qu ite</w>
ré s</w>
dou b
ind ic
av anc
mi ght</w>
t exte</w>
th ings</w>
b est</w>
implement ation</w>
dis pos
end ed</w>
vou lons</w>
chang ement</w>
i que</w>
cl é
intern al</w>
Go vern
ai r</w>
ju d
fun ds</w>
B el
develop ing</w>
t ent
é tu
ad hésion</w>
ag rap
particip ation</w>
l ent</w>
b re
v r
gr ap
inter vention</w>
trouv er</w>
gu erre</w>
res tric
è te</w>
fron ti
fi el
différ ents</w>
a de</w>
j am
fo od</w>
sim pl
dom aines</w>
innov ation</w>
po s</w>
b er
f y</w>
do c
è mement</w>
sor te</w>
E U
eu res</w>
al low</w>
int érieur</w>
com pris</w>
mark ets</w>
qu elles</w>
li er</w>
ris que</w>
gouvern ements</w>
s ingle</w>
con fir
pr acti
cit er</w>
nécess aires</w>
N o</w>
des tin
industri e</w>
ex is
péri ode</w>
ful l</w>
c al
Con stitu
Tur key</w>
d euxi
ag o</w>
éti que</w>
fac t
en h
essenti el</w>
le ag
m ess
emp h
eu se</w>
s anc
t elle</w>
wor ds</w>
pr ise</w>
pre u
ni que</w>
vari ous</w>
S o</w>
le quel</w>
nu clé
li r</w>
spéci fi
call ed</w>
euro s</w>
ex cep
résul tats</w>
l and</w>
consid er</w>
aut ant</w>
v isi
min u
moy ens</w>
mê mes</w>
th em
w s</w>
st ep</w>
jud ici
conclu sion</w>
R om
déc isions</w>
e th
tic s</w>
bil ity</w>
ti fs</w>
reli gi
con cep
fi e</w>
coordin ation</w>
éc rit</w>
possibil ité</w>
nomb reuses</w>
m ed</w>
maj orité</w>
par agrap
charg e</w>
jam ais</w>
lif e</w>
tou tefois</w>
ra i</w>
a z
c ô
B al
jus te</w>
concern s</w>
T o</w>
c le</w>
ass istance</w>
ar gu
col leag
U kr
maj ority</w>
com es</w>
competi tion</w>
suiv re</w>
regi onal</w>
h aving</w>
renforc er</w>
O u
T ra
In ter
per mettre</w>
cré er</w>
group es</w>
Tur quie</w>
ap par
es se</w>
sû r</w>
ain ed</w>
dé termin
loc al</w>
ext rem
plu tôt</w>
stand ards</w>
ch em
ti ques</w>
en du</w>
m as
discus sions</w>
soulign er</w>
fo reign</w>
st abilité</w>
nee ded</w>
ac tive</w>
ad ic
ex per
al low
re qu
A si
conf lic
e ducation</w>
fin al</w>
permet tr
génér al</w>
cons ci
cre ate</w>
for tun
ob s</w>
re fer
p an
pro pos</w>
ven tions</w>
p les</w>
p u</w>
nu clear</w>
é d
objecti ves</w>
mon tr
our s</w>
c y
st ly</w>
î t</w>
qu ali
agre ements</w>
o thers</w>
h app
group s</w>
ati fs</w>
dé pen
invest ment</w>
discrimin ation</w>
h ol
is er</w>
d en</w>
min d</w>
Lis bon</w>
O b
on ds</w>
invol ved</w>
fav or
derni ères</w>
ét aient</w>
ré forme</w>
technolo gies</w>
j obs</w>
te z</w>
Lis bonne</w>
effor t</w>
éner g
engag ement</w>
ex peri
administr ation</w>
hap s</w>
tran si
h en
ac i
sim ply</w>
tr u
abor ation</w>
diffici le</w>
d r
am ong</w>
qu ent</w>
br ing</w>
comm ittee</w>
um p</w>
J ap
simpl ement</w>
jec ts</w>
syst ems</w>
av ail
pro pose</w>
cho ses</w>
rel ation</w>
Govern ment</w>
prop re</w>
prot ég
dec isions</w>
au ra</w>
idé e</w>
nor mes</w>
candi d
im pos
z ation</w>
ti l</w>
t els</w>
ma int
empl ois</w>
iter ran
pro jets</w>
F ir
human it
m i</w>
op en</w>
di ver
B r
long er</w>
nation aux</w>
Aff airs</w>
grat ul
fr an
vr ai
comm enc
rédu ire</w>
e f</w>
t el</w>
ay ing</w>
c ou
con du
deuxi ème</w>
l and
deman der</w>
e ful</w>
f ont</w>
ta x</w>
Tou tefois</w>
â ce</w>
proce dure</w>
w ar</w>
effec tiv
do cu
memb ers</w>
docu ment</w>
com ing</w>
EU R</w>
heu reusement</w>
pr ê
ag enda</w>
olo g
conse qu
en vis
s ing</w>
En fin</w>
el er</w>
con gratul
si x</w>
L e
souha ite</w>
contr ô
en se</w>
ab s
O r
agricul tural</w>
quel que</w>
op position</w>
gr av
b ri
l é
dat a</w>
milit ary</w>
rais ons</w>
élarg issement</w>
g er</w>
b an</w>
seu le</w>
an y
l itt
follow ing</w>
mis sions</w>
t ext</w>
démocrati que</w>
inté gration</w>
em o
w le
x im
impro ve</w>
ég alité</w>
th ou
star t</w>
M a
conséqu ences</w>
R i
er ait</w>
fi ght</w>
el l</w>
Am end
form er</w>
syst èmes</w>
det er
es ter
is tes</w>
peri od</w>
al tern
re té</w>
to ire</w>
Tr ump</w>
ari an</w>
k es</w>
g a
ai r
v isions</w>
certain ly</w>
m al</w>
ré alité</w>
activ ités</w>
dur able</w>
re fl
dé t
rapid ement</w>
W or
esti m
sim ple</w>
ac ro
budg étaire</w>
ex erci
in dépend
aw are</w>
exerci ce</w>
qu and</w>
sub si
comp éti
l ack</w>
ser ve</w>
concer n</w>
O ff
re duc
p ast</w>
comprom is</w>
objec tive</w>
i tion</w>
dou te</w>
ag ir</w>
si mil
is sions</w>
ch es</w>
minis tre</w>
év iter</w>
us s
cont exte</w>
exer c
tern al</w>
Ukr aine</w>
accep t</w>
s k
è ne</w>
C our
li ght</w>
co sts</w>
régi me</w>
con fron
cont ext</w>
n et
as te</w>
responsib le</w>
dis tribu
ti tre</w>
cruci al</w>
leg isl
h y
n at
appropri ate</w>
them selves</w>
Pre mi
str ong</w>
ju st
ch i
E C
S oci
em er
es time</w>
élec tions</w>
su per
l é</w>
mess age</w>
ni ques</w>
se z</w>
me eting</w>
en ough</w>
W ith</w>
éri que</w>
pass é</w>
fiel d</w>
d en
a jou
o m</w>
ing ly</w>
curr ently</w>
Cour t</w>
par lement
n é
amend ment</w>
f arm
repres ent
ne i
sustain able</w>
li on</w>
cap acité</w>
ou th</w>
ex ten
qu a
dev rions</w>
S ec
avail able</w>
mo ve</w>
Fin ally</w>
p ing</w>
di vers
m en</w>
mon ths</w>
t on</w>
manag ement</w>
inde pend
mon it
resul ts</w>
moy en</w>
str ic
re ach
ent endu</w>
effic acité</w>
conclu sions</w>
litt le</w>
ven ess</w>
signific ant</w>
actu ally</w>
dem ment</w>
Constitu tion</w>
extrem ely</w>
t arg
C o
en du
h eure</w>
D e
inde ed</w>
c aus
preu ve</w>
d oll
prof essi
under stand</w>
s si
on d
c elles</w>
étab l
régi on
Eu ro
organis ation</w>
I ls</w>
Th e
princip es</w>
par liam
arg ent</w>
su s
jeu nes</w>
c in
ce pendant</w>
el ess</w>
l et</w>
ans w
y oun
a red</w>
compl e
ac ts</w>
oppor tu
Di rec
bu re
vi ous</w>
c ases</w>
Se con
cap ac
S p
il les</w>
Off ice</w>
do ing</w>
nation ales</w>
ri que</w>
influ ence</w>
r endre</w>
import ants</w>
B ien</w>
t ées</w>
di men
sanc tions</w>
sup port
dem on
ex port
civi l</w>
tiv ité</w>
volon té</w>
vrai ment</w>
t ob
sim pli
ain c
confi ance</w>
memb er</w>
mani f
jo int</w>
bal ance</w>
rem ain</w>
part i</w>
consum ers</w>
répon dre</w>
environn ement
Americ a</w>
our ce</w>
menti oned</w>
o k</w>
M E
A C
é ducation</w>
ent u
con serv
n ed</w>
augment ation</w>
w r
lors qu</w>
S tr
er ont</w>
diri ge
ré es</w>
emp ê
op ér
em ment</w>
meill eure</w>
k ind</w>
dis cu
extrê mement</w>
ex ac
gu eur</w>
t elles</w>
con ci
w ri
P or
le ad</w>
ch ers</w>
p er</w>
ré se
fortun ately</w>
C our</w>
om ati
tr ue</w>
financi ers</w>
li ance</w>
pl ay</w>
sup plé
tr ad
lig ne</w>
p ét
wri ting</w>
at h</w>
en largement</w>
car ri
s et
inten tion</w>
dis positions</w>
li t</w>
app elle</w>
ever al</w>
cons en
car act
F onds</w>
intro duction</w>
busin ess</w>
t end
Ar ticle</w>
D emo
P alestini
clo s
concern ing</w>
l au
fronti ères</w>
ni e</w>
oblig ations</w>
clai r</w>
ex péri
po int
T out</w>
ac es</w>
Af rique</w>
gr âce</w>
o s</w>
G u
reas ons</w>
tot al</w>
S er
cr it
inte gration</w>
pour raient</w>
Afric a</w>
h es</w>
di pl
princip les</w>
ambi ti
fun ding</w>
ré formes</w>
com pr
rel ative</w>
v o</w>
an moins</w>
n ers</w>
mod è
adop ter</w>
commit ment</w>
esp ite</w>
st oc
bi o
end ra</w>
pol lu
aspec t</w>
n ess</w>
supplé ment
comprom ise</w>
pro jects</w>
mon t
ti veness</w>
shor t</w>
g s</w>
I tali
ré duction</w>
ant i</w>
d ri
ide a</w>
centr al</w>
gran des</w>
re fu
demon str
tra î
conn ec
prop res</w>
ec i</w>
ari at</w>
seu l</w>
L et</w>
vi ties</w>
c are</w>
transpar ence</w>
ch ar
investiss ements</w>
gr ants</w>
att ers</w>
st er
po ver
se e
youn g</w>
Ko so
O N
at er
ag er</w>
S y
anc ed</w>
appr ouv
différ entes</w>
hi m</w>
uni es</w>
l anc
promo tion</w>
ét at</w>
C ep
Cep endant</w>
mondi al</w>
st atu
ab o
dev ant</w>
individu al</w>
f el
financi ères</w>
mal a
sy m
m atters</w>
j et
ai der</w>
conv ainc
direc t</w>
respon se</w>
sh are</w>
form ul
jour n
pers onne</w>
di e</w>
pre vent</w>
puis se</w>
uni vers
c au
com par
solidar ité</w>
terroris me</w>
er ship</w>
vér itable</w>
lead ers</w>
con vient</w>
consen sus</w>
somm et</w>
ro w</w>
acti vities</w>
m é</w>
se ems</w>
mon étaire</w>
ar ound</w>
re du
g n</w>
par ler</w>
it an
promo te</w>
fi gu
per man
st ability</w>
priv ate</w>
succ ess
O ne</w>
cli matique</w>
r ate</w>
ré v
déclar ation</w>
t i</w>
emer g
ob st
dem and</w>
ti ent</w>
re présente</w>
ob jet</w>
évalu ation</w>
l ande</w>
se p
achiev ed</w>
énerg étique</w>
bil lion</w>
val eurs</w>
pri ority</w>
b order</w>
V ous</w>
Y ou</w>
atu re</w>
H e
m éc
perspec tive</w>
D es</w>
C er
reg ards</w>
rel ev
pro por
Al lem
at ors</w>
s ex
pri t</w>
refl ec
B er
ra is</w>
p ay</w>
fondament aux</w>
h ic
D ec
h is
plu part</w>
Por tu
pauv reté</w>
pover ty</w>
r ich
in fl
béné fici
trou ve</w>
ô m
Koso vo</w>
b as
natu rel
s everal</w>
as sur
milli ards</w>
th an
pre par
mu tu
per haps</w>
se en</w>
de al
soci aux</w>
T O</w>
d y
obst ac
A us
résul tat</w>
pl ans</w>
provi ded</w>
terroris m</w>
coû ts</w>
ag n
c ite</w>
fis her
p as
abs ence</w>
R é
centr ale</w>
r é</w>
inclu de</w>
Min ister</w>
no thing</w>
suff ici
dépen ses</w>
re ports</w>
public s</w>
dé but</w>
o l</w>
benef it</w>
no te</w>
pré par
fe el</w>
ni es</w>
financi er</w>
stand ing</w>
souha it
es prit</w>
Wh en</w>
signi fie</w>
b or
en ting</w>
s ources</w>
ma kes</w>
n ever</w>
eu ses</w>
struc turel
ai m</w>
r ural</w>
C or
effec t</w>
accep ter</w>
appli c
préc is
rap ports</w>
ré jou
in ation</w>
vi ew
de pend
import antes</w>
reg ret
P e
abo ve</w>
R u
homm es</w>
adop té</w>
E ast</w>
h and
elec tions</w>
m ean</w>
co hésion</w>
id ed</w>
Ger many</w>
val ue</w>
val ues</w>
deter min
solidar ity</w>
dé e</w>
ass ess
ast rop
pr ices</w>
ec h</w>
méc anis
ch ôm
grap hi
tech n
accor d
us ing</w>
is ts</w>
cat astrop
ou ti
redu ce</w>
ru ption</w>
e au</w>
con centr
fai r</w>
ac qu
ris ques</w>
comm un</w>
he sion</w>
g é
tr ag
hist ori
is se</w>
reco gn
b ru
comp ens
s avons</w>
si è
atte indre</w>
fr au
all er</w>
sen se</w>
re over</w>
of f</w>
en traî
ner ship</w>
agre ed</w>
al though</w>
t om
at ory</w>
Af gh
é vo
T o
t ons</w>
consid er
ic k
ch ance</w>
fic ations</w>
e ad</w>
at ta
dimen sion</w>
déf ense</w>
ob tenir</w>
protég er</w>
th us</w>
speci al</w>
ou voir</w>
co st</w>
cr iter
val eur</w>
dra ft</w>
mar i
g ens</w>
agric ole</w>
do is</w>
p ati
s ession</w>
str u
li k
B ank</w>
inte gr
ru le</w>
orig ine</w>
onn es</w>
po st
ét aires</w>
guaran tee</w>
pro ject</w>
mé th
fam ili
p eux</w>
B an
li ation</w>
congratul ate</w>
ay ant</w>
arr ê
élé ments</w>
acc ession</w>
consequ ences</w>
gi ques</w>
éri eure</w>
succ ess</w>
atti tude</w>
t re
veill er</w>
u t
b el
ro ad</w>
tionn el</w>
collè gue</w>
commun ity</w>
cri me</w>
M y</w>
in dis
potenti al</w>
U N</w>
ac te</w>
Allem agne</w>
pl an
contr aire</w>
incre ased</w>
legisl ative</w>
prom ouvoir</w>
lab our</w>
im possible</w>
dirige ants</w>
regar ding</w>
Americ an</w>
sh ow
ech anis
poli ce</w>
dra w</w>
itu re</w>
veu t</w>
conflic t</w>
par venir</w>
ani a</w>
vit al</w>
exis ting</w>
increas ing</w>
Ri ghts</w>
man que</w>
crit ères</w>
vi gueur</w>
transpar ency</w>
féli citer</w>
h ér
de li
C O
ap er</w>
alis t</w>
dé cid
alis m</w>
challeng es</w>
addi tion</w>
f our</w>
consum er</w>
C om
res ol
un til</w>
l ec
fo c
Commun auté</w>
infrastruc ture</w>
or ing</w>
vic times</w>
a dé
ë l</w>
m it
recomm and
wle dge</w>
cul tural</w>
so on</w>
rel atives</w>
l et
ré sou
am a</w>
par mi</w>
menti onn
con ver
clo se</w>
cre ation</w>
v ely</w>
D ev
ch e
fi que</w>
ni ties</w>
sign ed</w>
ét és</w>
adv ant
iss ons</w>
ei ther</w>
p ack
procé dures</w>
dis tin
uni quement</w>
aut oris
o d
ul g
éc u
J us
apport er</w>
exist ence</w>
économi es</w>
institu tion</w>
d le</w>
Wor ld</w>
al ités</w>
me th
sect eurs</w>
guaran te
bo dy</w>
Am érique</w>
protec t</w>
cl ari
for t</w>
certain ement</w>
p én
z ones</w>
de si
re ç
Ou r</w>
subst anti
gi c</w>
éri eures</w>
doc uments</w>
C E</w>
rapport eurs</w>
s ement</w>
br itan
F o
sou ten
ant ly</w>
vo is
m echanis
Isra el</w>
commun auté</w>
re forms</w>
mé dic
soci ales</w>
l ements</w>
P E</w>
lo in</w>
In di
pré ci
remerci e</w>
ré ellement</w>
en fin</w>
respons ables</w>
R oy
fau d
lo g
è rent</w>
P ol
utilis er</w>
é missions</w>
ac cid
Direc tive</w>
encour age</w>
B ri
por ting</w>
gi tim
pri ce</w>
to co
hel d</w>
acro ss</w>
t ex
G r
nuclé aire</w>
ac comp
pur su
f all
é change</w>
bi li
cl as
prati que</w>
add ress</w>
Amend ment</w>
bure au
amélior ation</w>
rec ently</w>
nation ale</w>
ord ers</w>
reco gni
ban ques</w>
pro fon
man d
cr ates</w>
answ er</w>
av oi
gr ands</w>
mo tion</w>
wor ks</w>
cap able</w>
basi c</w>
on d</w>
i rs</w>
att emp
pri orité</w>
personn el</w>
qu anti
ex pression</w>
u e
compl et
inté ress
us h</w>
fi ve</w>
Par ty</w>
on i
ap ply</w>
w ater</w>
qua tre</w>
ma xim
we ek</w>
ent ary</w>
opportu nities</w>
condi tion</w>
Ira q</w>
up on</w>
alis tes</w>
lev els</w>
un anim
succ ès</w>
techn ical</w>
every one</w>
infl ation</w>
ou bli
ap e</w>
el op</w>
rapp eler</w>
jo b</w>
de l</w>
I I</w>
dev elop</w>
in ce</w>
si s</w>
au me</w>
ag ue</w>
Inter national</w>
s au
direc tives</w>
tis h</w>
expri mer</w>
minim um</w>
L a
peti tes</w>
re ments</w>
practi ce</w>
cin q</w>
deb t</w>
hap pen
P our
spe ak</w>
contin ent</w>
str ong
re pe
colleag ues</w>
v ul
is ing</w>
al most</w>
iv ed</w>
év olution</w>
er ous</w>
produ it</w>
V er
s a
fun c
re mains</w>
concep t</w>
chôm age</w>
o il</w>
re t</w>
peu ple</w>
e ce</w>
long temps</w>
s ource</w>
orig in
P ri
lik ely</w>
indis pens
Fun d</w>
pri orités</w>
ent er
streng th
résou dre</w>
dé pl
cor por
modè le</w>
institu tional</w>
men tion</w>
cho ix</w>
v rai</w>
mat er
qu ot
equ al</w>
gh out</w>
vi ously</w>
im medi
vic ti
farm ers</w>
me et</w>
pro visions</w>
r ates</w>
é tude</w>
évi demment</w>
r ac
D E</w>
p ul
t â
pres sure</w>
mon tre</w>
sh ow</w>
technolo gy</w>
l anti
ple ased</w>
équi libre</w>
investiss ement</w>
parten aires</w>
le ft</w>
tra itement</w>
ori es</w>
cô té</w>
criter ia</w>
ang e</w>
l ines</w>
co hesion</w>
eff ets</w>
h or
professi onn
Isra ël</w>
développ er</w>
li és</w>
Or g
st age</w>
c o</w>
actu el</w>
four n
difficul tés</w>
foc us</w>
pro per
ap pu
enc h</w>
cour t</w>
lo i</w>
précis ément</w>
pow ers</w>
Dev elop
The refore</w>
continu er</w>
as ked</w>
r end
le ar
alis me</w>
f é
tr aining</w>
adé qu
li es</w>
In de
In tern
acc ro
ar ity</w>
év én
tak es</w>
dy nam
con cre
Roy aume</w>
economi es</w>
Afgh an
pro vo
li n</w>
ad equ
t ations</w>
Intern et</w>
Nor d</w>
em por
th y</w>
pass er</w>
én or
in ement</w>
prati ques</w>
Afghan istan</w>
cons ist
hu ma
p ed</w>
Ban que</w>
fav oris
rec e
con form
oi res</w>
V o
l on
proch aine</w>
cor ruption</w>
ar mes</w>
coll aboration</w>
réglement ation</w>
dis par
soci étés</w>
int ég
ke ep</w>
effec ts</w>
his toire</w>
con dam
conci liation</w>
o h
respec ter</w>
struc ture</w>
oblig ation</w>
en ed</w>
an u
t ers</w>
génér ale</w>
subsi di
do ssi
requi red</w>
Fr ench</w>
proce dures</w>
regul ations</w>
la iss
déf is</w>
our selves</w>
Inde ed</w>
M ed
trans ports</w>
Al l</w>
Su d</w>
adop t</w>
trav ers</w>
nei gh
Secon dly</w>
ab and
relev ant</w>
permet tant</w>
dis e
ré union</w>
ti ce</w>
expres s</w>
h old</w>
m un
dé p
équi lib
réf érence</w>
sou ff
L u
d am</w>
travail ler</w>
perspec tives</w>
P l
wh ose</w>
m ér
chang ements</w>
g al</w>
D euxi
con duc
tic ally</w>
beso ins</w>
w ar
conf lit</w>
ex ternal</w>
or it
throu ghout</w>
Bri tish</w>
exc essi
rou ght</w>
per mis</w>
em issions</w>
lan gu
f ri
re z</w>
mo vement</w>
commerci al</w>
di o
m auv
fi é</w>
sor mais</w>
qu ick
v ont</w>
he ad</w>
for te</w>
org an
vo ting</w>
P oli
regi me</w>
t eur</w>
carri ed</w>
develop ed</w>
réc emment</w>
ch ac
bec om
sur ing</w>
av er
cr ats</w>
Sy ri
el on</w>
tr ain</w>
effec tu
sur veill
t an
prog res
dic tion</w>
wi de</w>
E tats</w>
sugg es
é ens</w>
O c
vo ter</w>
recomm end
pos é</w>
di g
emph as
Un i</w>
tot alement</w>
v al</w>
par ven
ban ks</w>
urg ence</w>
fis hing</w>
n ations</w>
E x
i ons</w>
acc oun
demand é</w>
im médi
con c
se ign
av aient</w>
establis hed</w>
experi ence</w>
ac compl
S outh</w>
civi le</w>
requi rements</w>
jou er</w>
exper ts</w>
ét ro
s aying</w>
establis h</w>
sh e</w>
g ence</w>
un employment</w>
im porte</w>
publi ques</w>
dang er</w>
re ti
vo it</w>
harmon isation</w>
stat ement</w>
al loc
urg ent</w>
mo del</w>
Develop ment</w>
every thing</w>
communaut aires</w>
comb at</w>
entrepr ise</w>
propos é</w>
s enti
étab lir</w>
pri orities</w>
comp et
statu t</w>
our able</w>
intro duc
Bar ro
hab it
aliment aire</w>
rap ide</w>
compl ex
vi a</w>
dé ci
les quels</w>
ic ally</w>
capac ity</w>
S lo
ouver ture</w>
di x</w>
int es</w>
en able</w>
reach ed</w>
nat ural</w>
benef its</w>
gr ad
cid ent
nam ely</w>
dem ain</w>
ple inement</w>
sem aine</w>
B e
tro isi
ch in
absolu ment</w>
consul tation</w>
part ners</w>
am ount</w>
equ ality</w>
dé sormais</w>
high er</w>
con cr
au x
parten ariat</w>
rel ating</w>
pres ented</w>
ag no
Mo reover</w>
O M
struc tures</w>
C entr
org ani
pr ac
f ound</w>
pa red</w>
présent er</w>
ré fu
ref us
tab led</w>
to ok</w>
w ing</w>
h ard</w>
compéti tivité</w>
internation ales</w>
me dic
n ation</w>
fisc al</w>
Portu gal</w>
com prendre</w>
four ni
d its</w>
en cies</w>
appli quer</w>
Ch ar
qu ée</w>
struc tural</w>
budg ets</w>
tra ff
fic it</w>
quick ly</w>
alis te</w>
b orders</w>
a king</w>
comm uni
t ol
commenc er</w>
ai rement</w>
altern ative</w>
re ality</w>
C ro
sect ors</w>
uti le</w>
compét ences</w>
p ir
M er
re ach</w>
pour ra</w>
P ak
gr ave</w>
fran ç
pour suivre</w>
l ar
lo t</w>
c ally</w>
a éri
U S
t reat
pu issent</w>
ch am
in ning</w>
t es
ther n</w>
B ulg
t ask</w>
renforc ement</w>
situ ations</w>
ren ouv
as sez</w>
ist ers</w>
exig ences</w>
cons ac
rel and</w>
re jet
ne g
sex u
popul ations</w>
I reland</w>
r on
ro g
mand at</w>
ress er</w>
e qui
h om
pre pared</w>
per met</w>
cer ti
li ving</w>
sti mul
w an
sp i
encourag er</w>
a way</w>
consid ère</w>
at tre</w>
considér ation</w>
ther more</w>
gu id
at e
Cer t
pack age</w>
impl ement</w>
b y
ev id
support ed</w>
subst ances</w>
béné fic
re duction</w>
c are
contribu er</w>
pe ine</w>
d espite</w>
financ ing</w>
men ace</w>
respon d</w>
li ve</w>
gh tly</w>
dec ided</w>
out side</w>
O f</w>
medi um</w>
rais ed</w>
cam p
ai mer
derni ers</w>
ai e</w>
onn ement</w>
hist ory</w>
eng en</w>
Centr al</w>
suffici ent</w>
im ag
ren ew
d û</w>
administr ative</w>
mon etary</w>
ai des</w>
Sch engen</w>
or row</w>
i d</w>
esp ér
Bal k
améric ain</w>
challeng e</w>
O r</w>
ag e
point ed</w>
ar b
m ises</w>
présent é</w>
w is
in come</w>
gen u
cre ating</w>
lis te</w>
budg etary</w>
annu al</w>
requ est</w>
milit aire</w>
po or</w>
l ée</w>
respons able</w>
ail s</w>
étu des</w>
ê tes</w>
go ods</w>
b rought</w>
circ ulation</w>
busin esses</w>
f er</w>
anim aux</w>
d ays</w>
implement ed</w>
fin ance</w>
conn u</w>
no r</w>
conf érence</w>
gouvern ement
surveill ance</w>
st ep
s po
ar t</w>
tou ch
constitu ent</w>
dev en
transi tion</w>
h alf</w>
m y
ga z</w>
R es
endu m</w>
pauv res</w>
B o
doub t</w>
man u
r ise</w>
P PE</w>
dis ast
f lo
part y</w>
spécifi ques</w>
y ond</w>
aff aire</w>
ex change</w>
pre sidency</w>
d ette</w>
è de</w>
suiv i</w>
il legal</w>
esp ace</w>
beh ind</w>
en qu
dic tat
dom esti
or d</w>
I B</w>
s l
t ely</w>
No tre</w>
pre vious</w>
tr im
fais ant</w>
al ong</w>
pl ay
dom in
déclar é</w>
kno wn</w>
Ir lande</w>
monit oring</w>
expéri ence</w>
buil ding</w>
expres sed</w>
parlement aire</w>
politi ci
confi dence</w>
réfu gi
anis ation</w>
mainten ir</w>
étrang ère</w>
paragrap he</w>
en suite</w>
des truc
increas ingly</w>
d ru
candid ats</w>
part age</w>
res er
séri e</w>
reg is
y er</w>
sup ply</w>
strate gic</w>
G e
off er</w>
F ur
manif est
minis tres</w>
infrastruc tures</w>
ri er</w>
Am ster
Amster dam</w>
O ri
lec ture</w>
C O</w>
pa role</w>
dé la
c ent</w>
distribu tion</w>
activ ité</w>
pre hen
favor able</w>
at ér
multi lat
streng then</w>
ph ase</w>
victi ms</w>
dipl omati
acc ue
treat ment</w>
constitu tion</w>
nive aux</w>
fel low</w>
fa its</w>
avoi d</w>
as y
re view</w>
V i
addi tional</w>
medi a</w>
o t</w>
posi tif</w>
at tr
vo s</w>
fonctionn ement</w>
st ress</w>
D P</w>
Dec ember</w>
possibil ity</w>
qu és</w>
troisi ème</w>
competi tiveness</w>
gr ound</w>
re l</w>
lut ter</w>
permettr a</w>
souha iter
Deuxi èmement</w>
fon d
consomm ation</w>
read ing</w>
explo itation</w>
tom orrow</w>
représent ants</w>
inclu ded</w>
fu tu
del à</w>
att end
él ément</w>
con vention</w>
déc embre</w>
pré f
ever th
everth eless</w>
tal king</w>
Re public</w>
en suring</w>
s av
féli cite</w>
S we
chac un</w>
analy se</w>
les quelles</w>
conséqu ence</w>
li min
op eration</w>
Fir st</w>
doll ars</w>
bili ties</w>
Bulg ari
mal gré</w>
fin ally</w>
hi le</w>
possibil ités</w>
tal k</w>
é po
tra ite</w>
ac teurs</w>
el ines</w>
fisher ies</w>
Ger man</w>
ris ks</w>
ress ed</w>
Europ e
é co
cert aine</w>
cre ated</w>
abil ités</w>
élev é</w>
all em
pollu tion</w>
mor t</w>
O n
fol low</w>
circ um
trav aux</w>
dé lég
rel ati
curr ency</w>
gi ving</w>
re turn</w>
mi d
augment er</w>
er ons</w>
M id
montr é</w>
fam ily</w>
si bilities</w>
t ell</w>
Ira k</w>
t empor
grow ing</w>
g yp
pr en
ai gn
obstac les</w>
fourni r</w>
m onn
Ob ama</w>
as sum
ex écu
bro ad
h ment</w>
indispens able</w>
li ves</w>
épo que</w>
il à</w>
Pak istan</w>
c entre</w>
oun d
ev ents</w>
ent er</w>
ester n</w>
ai med</w>
n om
Chin ese</w>
H e</w>
év entu
cam pai
Au jourd</w>
anis h</w>
cri tic
Barro so</w>
than ks</w>
ext ent</w>
ac ks</w>
v é
Jus tice</w>
e y
direc tement</w>
suffis amment</w>
direc tly</w>
effici ency</w>
Gre ece</w>
dev enir</w>
ur y</w>
kno wledge</w>
étrang ères</w>
cul turel
parti s</w>
Ré publique</w>
D é
cau ses</w>
par ts</w>
mal heureusement</w>
beg in</w>
qu ées</w>
cr ises</w>
aut om
w ill
y eux</w>
elec tion</w>
w aste</w>
di minu
pl ann
hu ge</w>
v ise</w>
A gre
G ener
chi ff
lim it
success ful</w>
inst au
puis que</w>
off re</w>
parliam entary</w>
effici ent</w>
améric aine</w>
o des</w>
b ack
ast er
équi p
lis t</w>
fi ée</w>
h op
éch elle</w>
at oire</w>
effectiv ely</w>
g as</w>
dang e
h ors</w>
st op</w>
C op
To day</w>
es po
et é</w>
onn er</w>
pr on
rel ated</w>
agricul teurs</w>
be yond</w>
préc é
rec ei
décid é</w>
cri mes</w>
sum mit</w>
E conomi
rel ation
a ît</w>
Demo crats</w>
ju g
S E</w>
F e
stat us</w>
he ad
fr ag
en vers</w>
cro ss</w>
fr u
Ori ent</w>
engag ements</w>
thre at</w>
expec t</w>
dev oir</w>
dev ra</w>
parti r</w>
évén ements</w>
requi res</w>
s it
mari time</w>
mit ted</w>
lau n
cons iste</w>
o les</w>
M ay</w>
aimer ais</w>
Indi a</w>
dé si
pon i
sy n
complet ely</w>
Af ter</w>
n eu
we e
ir a</w>
re jec
ass emb
iterran ean</w>
t ack
associ ation</w>
E st</w>
mont rer</w>
pen sion</w>
C u
N G
absolu tely</w>
ph y
rece ived</w>
el lig
dis poni
sen sib
Nor th</w>
territ oire</w>
E sp
fai ble</w>
princip al</w>
construc tive</w>
tionn elle</w>
Med iterranean</w>
Economi c</w>
meill eur</w>
réfugi és</w>
prof it</w>
represent atives</w>
Re g
h ome</w>
tech niques</w>
con ven
consid ered</w>
dé r
oc cident
vo tes</w>
Bel ar
com prehen
m ic
in cid
è ve</w>
Ko re
comp tes</w>
examin er</w>
refu ge
A in
c k
hear d</w>
men er</w>
l am
Europ éens</w>
ci v
res truc
respons abilités</w>
affec ted</w>
de ath</w>
Org anisation</w>
forc ed</w>
in ed</w>
Con ference</w>
Mid dle</w>
AC P</w>
fron tali
simil ar</w>
Ch ris
alis ts</w>
restric tions</w>
adequ ate</w>
h un
ré vision</w>
ar ti
vo c
hau t</w>
appli ed</w>
ch ez</w>
contr adic
j an
beg inning</w>
Fur thermore</w>
viol ations</w>
b loc
pré serv
r us
h aus
independ ent</w>
N ew</w>
conclu re</w>
Cop enh
bi g</w>
mo bil
b as</w>
qu o
G rè
Grè ce</w>
supplément aires</w>
it em</w>
provi ding</w>
er t</w>
is ol
A près</w>
aster n</w>
pro toco
W i
quot as</w>
reu r</w>
assess ment</w>
ér é</w>
alis ed</w>
sh own</w>
c en
c anc
we ak
fi ques</w>
s tri
commit ted</w>
Balk ans</w>
di gn
Europe ans</w>
lim ited</w>
gre at
séri eux</w>
com port
un g
pers onal</w>
tr ying</w>
app el
éc ou
t ard</w>
is ely</w>
tax es</w>
reven us</w>
ol s</w>
Ain si</w>
par fois</w>
ell ing</w>
britan nique</w>
princip aux</w>
No w</w>
al one</w>
ê me</w>
gen re</w>
lead ing</w>
contribu te</w>
ic s</w>
humanit arian</w>
S elon</w>
con solid
sc ale</w>
view s</w>
bour g</w>
discus sed</w>
ess ay
pour tant</w>
vo ix</w>
en seign
accor ding</w>
K y
effectiv ement</w>
int ellig
dev i
im es</w>
produc teurs</w>
R ou
it ablement</w>
Tra ité</w>
allow ed</w>
del eg
investi g
requi re</w>
cho is
enter prises</w>
ouv rir</w>
circum st
souti ens</w>
étu di
prés ence</w>
an a</w>
inst ead</w>
sc ope</w>
we ap
im pose</w>
F or
re by</w>
s ais</w>
arr ang
mani e</w>
J une</w>
médi as</w>
e asi
sign al</w>
P u
réjou is</w>
prop er</w>
prac tical</w>
sh ar
provi des</w>
pens er</w>
B y</w>
impro ving</w>
t ting</w>
distin c
rou te</w>
as h
ev alu
call s</w>
i ques</w>
end er</w>
veu lent</w>
a tri
don ne</w>
A L
effic aces</w>
avant ages</w>
facil it
préc éd
tr on
appe l</w>
M ac
st abil
cont ent</w>
b lo
spe ech</w>
empê cher</w>
lu m</w>
N é
ve red</w>
industri al</w>
al ise</w>
A N</w>
ju in</w>
manu fac
pati ents</w>
all ons</w>
Gener al</w>
trans fer
w ise</w>
ap préci
Pe ople</w>
indus tries</w>
met tez</w>
and is</w>
dé ch
budg étaires</w>
Agre ement</w>
a des</w>
divers ité</w>
ad d</w>
sor t</w>
comp ati
tra it
a ï
Premi er</w>
E S
em enting</w>
part nership</w>
con dem
Russi an</w>
cl aire</w>
high ly</w>
d ers</w>
I tal
Fir stly</w>
gh ted</w>
produ ce</w>
exam en</w>
f all</w>
prec isely</w>
p ill
plac ed</w>
p asse</w>
pos ed</w>
step s</w>
Ital y</w>
con fl
cre di
déf i</w>
w it
circumst ances</w>
mondi alisation</w>
L ors
dossi er</w>
k en</w>
prob ablement</w>
fic ally</w>
appro ved</w>
consci ence</w>
discus s</w>
eu sement</w>
v ements</w>
des cri
liber tés</w>
dou ble</w>
p aid</w>
fa ite</w>
inter ven
démocrati ques</w>
Bu dg
In de</w>
accor der</w>
reu se</w>
pens ons</w>
conv inc
saf e
conform ément</w>
inten si
pre ci
et c</w>
maint ain</w>
asi le</w>
oun c
Sec urity</w>
tr ust</w>
T i
pri mar
qu et</w>
é mer
moder n
ten us</w>
N A
ar ch
lead ership</w>
cour age</w>
a h
guid elines</w>
scienti fic</w>
neigh bour
con stru
olog ical</w>
hu mains</w>
grav es</w>
mater i
buil d</w>
vo irs</w>
enti re</w>
Chris ti
pres que</w>
prê ts</w>
competi tive</w>
un acceptable</w>
adop tée</w>
fonc tion</w>
inv ite</w>
go es</w>
b un
confl its</w>
ec tu
cré di
promo ting</w>
ti en</w>
U K</w>
Palestini an</w>
le gitim
o g
im pression</w>
éli min
en contre</w>
b onnes</w>
M ême</w>
ater al</w>
envir on</w>
domesti c</w>
réalis er</w>
p alestini
r un</w>
structurel s</w>
res se</w>
B ush</w>
S o
OM C</w>
Per mettez</w>
r ing</w>
E ven</w>
agric oles</w>
olu tions</w>
sou ver
typ es</w>
juridi ques</w>
rése aux</w>
Al though</w>
monn aie</w>
anim al</w>
connec tion</w>
emb our
am en
car ry</w>
rest er</w>
k a</w>
ail le</w>
const ater</w>
coû t</w>
difficul ties</w>
o eu
wan ted</w>
d it
C an
s cho
G DP</w>
so ins</w>
territ ori
Jap an</w>
c ations</w>
vi ennent</w>
F is
it al</w>
pr u
pos t</w>
proch ain</w>
ani e</w>
réf ér
op tion</w>
ér ité</w>
perman ent</w>
Soci al</w>
se par
cri tical</w>
alis er</w>
déb ats</w>
fon d</w>
comple te</w>
over all</w>
st able</w>
sp ending</w>
t aire</w>
pré vention</w>
er ai</w>
ser aient</w>
US A</w>
W hile</w>
in spec
caract ère</w>
ress or
aut on
ob t
correc t</w>
vi er</w>
is ent</w>
libér alisation</w>
pré v
st om
è tes</w>
Belar us</w>
v acc
asy lum</w>
consider able</w>
reduc ing</w>
S ep
con cl
le ave</w>
renouv el
ac tes</w>
en voy
pou voirs</w>
soulign é</w>
gr am
hy po
inclu sion</w>
internation aux</w>
ab order</w>
mi gration</w>
clos ely</w>
W TO</w>
divers ity</w>
déclar ations</w>
inst all
déf endre</w>
dis position</w>
T ro
e as
govern ance</w>
vo ire</w>
Afric an</w>
m ing</w>
x embour
l ater</w>
m ouv
pen d</w>
souhaiter ais</w>
h um
ti r</w>
p at
activ ity</w>
Itali e</w>
S ome</w>
onc er</w>
land ais</w>
n é</w>
dur ant</w>
rec ev
gouvern ance</w>
impl ementing</w>
B ru
cep ti
pris on
ar ms</w>
Ser bi
évi dent</w>
S ince</w>
ru p
b arri
pro pri
P IB</w>
es sions</w>
wr ong</w>
siè cle</w>
n av
reconna ître</w>
ell ectu
ré s
médic am
oc tro
out come</w>
att endre</w>
commit ments</w>
phy si
J u
r ic
so ve
permet tez</w>
accep ted</w>
M E</w>
at tribu
caus ed</w>
immi grants</w>
emph asi
us tr
fun d</w>
b ou
ex tra
i ti
Poli cy</w>
ag g
pur pose</w>
ré uni
au quel</w>
port er</w>
Asi e</w>
v eux</w>
op ti
du ty</w>
C A
é ro
ser ves</w>
bi ais</w>
pa quet</w>
ful f
exclu sion</w>
s avez</w>
arri v
st ated</w>
H ow</w>
né anmoins</w>
ri ghtly</w>
recei ve</w>
dis cours</w>
vi v
ab orer</w>
ar ité</w>
tâ che</w>
show s</w>
cre dit</w>
ti rer</w>
priv il
dem ands</w>
sen si
opini ons</w>
re ference</w>
pré voit</w>
déch ets</w>
j eu</w>
cent ury</w>
W estern</w>
seri ously</w>
au t</w>
g et
démo crates</w>
or m
int ellectu
def ence</w>
set ting</w>
No s</w>
uss els</w>
R o
destruc tion</w>
technolo gie</w>
argu ments</w>
bal anced</w>
Pri me</w>
g ne</w>
Br ussels</w>
lé gi
M oy
Cro ati
pro spec
or al</w>
reconna issance</w>
I ris
dec ide</w>
restruc tur
fail ure</w>
just ement</w>
re mo
transpar ent</w>
expri m
maxim um</w>
préoccup ations</w>
rel atif</w>
Un fortunately</w>
entr ée</w>
hon ourable</w>
inté gr
happ en</w>
A d
Iris h</w>
J anu
olo gique</w>
Janu ary</w>
indépend ance</w>
in te</w>
déc en
b a</w>
Asi a</w>
Str as
ins cri
rati fication</w>
low er</w>
peu ples</w>
ent endre</w>
loo king</w>
sem aines</w>
l ess
Stras bourg</w>
ati c</w>
glob ale</w>
s ent</w>
sup porting</w>
mati ques</w>
shi ps</w>
produc ed</w>
spe ak
S um
cl ause</w>
mas sive</w>
crimin al</w>
tech nique</w>
vi end
Moy en</w>
qu ently</w>
sup pri
impli que</w>
popul aire</w>
deal ing</w>
relation ship</w>
mea sure</w>
suc ce
ver se</w>
s ait</w>
f ying</w>
pres s</w>
comp li
ili ties</w>
V I
fo cus
Su r</w>
défin ition</w>
jan vier</w>
pro vision</w>
c eci</w>
auth ority</w>
C eci</w>
ex pend
r ant</w>
Bru x
Brux elles</w>
accord ance</w>
stu dy</w>
ester day</w>
per form
lign es</w>
E C</w>
wee ks</w>
straté gique</w>
mala dies</w>
Né anmoins</w>
nouv el</w>
rem plac
contribu tions</w>
t andis</w>
tra ités</w>
st e
Jap on</w>
poli tics</w>
li e</w>
becom ing</w>
communic ations</w>
la ws</w>
espo ir</w>
consid eration</w>
ill ég
tr ait</w>
du s</w>
int ended</w>
rése au</w>
C ol
colleag ue</w>
wh om</w>
Présid ence</w>
A ra
région ale</w>
vou l
fac ing</w>
impro ved</w>
govern mental</w>
potenti el</w>
cl am
huma ine</w>
En vir
jo in</w>
Reg ulation</w>
at lanti
ex ist</w>
H ung
ti ss
El les</w>
avi ons</w>
co hér
hi er</w>
ambiti ous</w>
dec lar
dis t
so i</w>
prob ably</w>
thin king</w>
éch e
tiv ement</w>
H uman</w>
pi ed</w>
si des</w>
lon gue</w>
candi date</w>
acc es
s er</w>
appro visi
idé es</w>
se em</w>
strength ening</w>
enti al</w>
w ants</w>
n s</w>
pré hen
ing dom</w>
fondament al</w>
ch ances</w>
reg ret</w>
garanti e</w>
it ali
Premi èrement</w>
sus cepti
re mind</w>
déc isi
exten sion</w>
ge o
s alu
m ag
speci fically</w>
haus se</w>
Ac cor
excep tion</w>
li ées</w>
Sp ain</w>
conna issance</w>
un fortunately</w>
rais onn
u te</w>
aliment aires</w>
dang erous</w>
pre v
acc us
espér ons</w>
ati onn
sign al
weap ons</w>
Tur k
dra wn</w>
Li ber
De puis</w>
ré uss
establis hment</w>
ari es</w>
atte int</w>
particip er</w>
comm ent
M c
li v
W est</w>
heu reux</w>
nuclé aires</w>
pro sp
u les</w>
No v
ç ons</w>
reç u</w>
M any</w>
conver gence</w>
sid ents</w>
caract ér
any thing</w>
repres ents</w>
stoc ks</w>
olog ne</w>
Y et</w>
rec ours</w>
tionn elles</w>
argu ment</w>
K ingdom</w>
commun es</w>
refer red</w>
Vo ilà</w>
ev ent</w>
re ques
défin i
ver sion</w>
mon o
sc and
C ar
Mal heureusement</w>
develop ments</w>
élec tor
a x
call ing</w>
repres ent</w>
si zed</w>
ais se</w>
mar g
particuli ère</w>
pour rons</w>
fail ed</w>
é changes</w>
cher ch
me an
figu re</w>
Mar ch</w>
pre ad</w>
produc t</w>
évi dence</w>
C y
f ec
att ach
reduc ed</w>
t é
con tenu</w>
thou ght</w>
ack no
dam age</w>
acqu is</w>
dev ront</w>
establis hing</w>
ouver t</w>
bro ad</w>
ma i</w>
spe aking</w>
under standing</w>
neg ative</w>
en orm
cré dits</w>
heu res</w>
représent ent</w>
dé g
achiev ing</w>
G az
Sep t
st er</w>
gar de</w>
camp agne</w>
ra ise</w>
M e
advant age</w>
comm ents</w>
cor respon
lim it</w>
con vic
t ari
Tr ans
Sept ember</w>
médicam ents</w>
princip alement</w>
clim at</w>
lo st</w>
h onn
Th ir
sep t
ap pl
f ear</w>
oun ds</w>
Fo reign</w>
happen ed</w>
pu issance</w>
re in
humanit aire</w>
mar s</w>
sept embre</w>
ap preci
il os
collec tive</w>
th reat
inter diction</w>
bo dies</w>
pro ven
sou lev
im poser</w>
chang er</w>
in corpor
genu ine</w>
inter pre
assur ance</w>
is hed</w>
spécifi que</w>
pour ront</w>
Ch am
mécanis me</w>
iss ances</w>
ear lier</w>
reas on
H am
Isra el
pét role</w>
off ice</w>
tr ices</w>
par le</w>
tra iter</w>
Esp agne</w>
milit aires</w>
elec ted</w>
comprehen sive</w>
co de</w>
ve hic
t or</w>
laiss er</w>
mar k</w>
gi ves</w>
moy ennes</w>
C am
ch ec
vi ens</w>
Al ors</w>
conclu de</w>
acc r
nor m
t est</w>
contrô les</w>
n ame</w>
ai ms</w>
au près</w>
sou mis</w>
ke ep
he al
sen sible</w>
atti rer</w>
expec ted</w>
è tement</w>
al lè
set t
evid ence</w>
aut orité</w>
some times</w>
H er
a fric
c k</w>
s chem
p acte</w>
ag ed</w>
f lu
langu age</w>
produc ers</w>
aut eur</w>
M us
su sp
ré gu
fr ont</w>
ni vers
produ ire</w>
l ands</w>
oeu vre</w>
D on
coop er
re construction</w>
convinc ed</w>
comp ag
vis a</w>
hab itu
pr ouv
Sum mit</w>
f ab
targ ets</w>
commerci aux</w>
expend iture</w>
enti rely</w>
nor mal</w>
main tien</w>
A b
accro ître</w>
s ac
l ate</w>
appro fon
con ference</w>
si vement</w>
analy sis</w>
ali zation</w>
com ité</w>
milli ers</w>
st o
contr ary</w>
t ors</w>
fl éch
tion ing</w>
considér able</w>
differ ences</w>
ch ap
flexi ble</w>
ther wise</w>
él aboration</w>
under min
tend ance</w>
gh ting</w>
proper ly</w>
th é
cri tique</w>
ide as</w>
ju dg
comp any</w>
per fec
fac tion</w>
compét ence</w>
dis pose</w>
recogni tion</w>
ajou ter</w>
considé rer</w>
habit ants</w>
w at
n ant</w>
Nov ember</w>
compens ation</w>
doll ar</w>
refuge es</w>
paragrap h</w>
us eful</w>
Lu xembour
P o
const at
k o
sec u
re ra</w>
dr am
eas y</w>
D u
modi fication</w>
fam ille</w>
it ent</w>
independ ence</w>
a head</w>
st ati
ag ers</w>
par fa
mécanis mes</w>
ad ded</w>
dé s</w>
nov embre</w>
ter a</w>
scienti fiques</w>
auton om
délég ation</w>
in sur
pe ac
P ME</w>
Al liance</w>
cho ice</w>
trans frontali
ré elle</w>
un il
é di
B ur
des er
naturel lement</w>
clos er</w>
e f
in no
Envir on
hand ic
b ed</w>
capit aux</w>
qu ar
ill ed</w>
d ant</w>
œu r</w>
ou ght</w>
beli ev
inter ventions</w>
mon th</w>
terroris tes</w>
défin ir</w>
ter ri
se ek</w>
sou tenu</w>
vois ins</w>
Kore a</w>
ch ed</w>
my self</w>
B ro
iss ante</w>
practi ces</w>
te dly</w>
c ame</w>
N e
au ront</w>
g l
centr ales</w>
per tin
z er
senti ment</w>
Tra de</w>
sé ance</w>
cont act</w>
introduc ed</w>
extra ordin
ais ir</w>
cat ég
per su
viol ation</w>
Cor ée</w>
r av
Lors que</w>
gé o
tour isme</w>
Luxembour g</w>
commerci ales</w>
a rer</w>
char ac
Rom ania</w>
Sp anish</w>
le z</w>
ar ab
priv é</w>
z ing</w>
san ds</w>
Pro gram
op ening</w>
parlement aires</w>
ag encies</w>
man ner</w>
comple x</w>
esp agno
com préhen
négoci ation</w>
P s</w>
el ements</w>
confron tés</w>
parfa itement</w>
faud ra</w>
ing ing</w>
excessi ve</w>
it aire</w>
un s</w>
e limin
wor d</w>
ON U</w>
ou ve</w>
wor k
pré vu</w>
sal ue</w>
ad s</w>
emphas ise</w>
discus sing</w>
uti l
futu r</w>
anim als</w>
A ve
ail ed</w>
respon sibilities</w>
concre te</w>
ad a</w>
opti mis
ex p
fi és</w>
pers on</w>
essenti elle</w>
r y
dis tor
onc é</w>
offici al</w>
t op
ni ère</w>
M or
loc ales</w>
par lé</w>
appe ar</w>
manag ed</w>
con cent
A t
Cert ains</w>
B os
ain ts</w>
ent am
r adic
accid ents</w>
cu stom
dra f
iti é</w>
flexi bility</w>
pres se</w>
di vi
enti er</w>
s ays</w>
enqu ête</w>
go al</w>
Slo v
ro m
C et</w>
at ement</w>
ét ape</w>
Gre en</w>
b aisse</w>
introdu ce</w>
trad u
cu t</w>
t élé
bo o
chang ed</w>
net works</w>
ré fléch
comb ating</w>
o to</w>
ur ge</w>
Str ate
at or</w>
ais on</w>
attemp t</w>
pro s
tax ation</w>
spi rit</w>
ann ounc
consum ption</w>
ur s</w>
acc ent</w>
c oup</w>
re member</w>
dé rou
mi ère</w>
i ds</w>
l our
catastrop he</w>
proch aines</w>
mechanis m</w>
vé hic
b â
el se</w>
an che</w>
reco very</w>
h ear</w>
tra fic</w>
ob viously</w>
ré alisation</w>
S uch</w>
cré dit</w>
tradi tion</w>
us es</w>
y esterday</w>
premi ères</w>
recommand ations</w>
ci pl
aut our</w>
pos és</w>
peti ts</w>
men ac
ref er</w>
aux quels</w>
mar che</w>
Mon etary</w>
c œur</w>
de gre
sec ure</w>
co ord
Ky oto</w>
Pro di</w>
Rou manie</w>
ab outi
finan ces</w>
ill et</w>
annu el</w>
bi ens</w>
in acceptable</w>
dis h</w>
propos er</w>
fu t</w>
cri tiques</w>
inter pré
pl oy
ret our</w>
pl a
sou ligne</w>
e aux</w>
happ y</w>
ho od</w>
f érence</w>
méth ode</w>
Gaz a</w>
dis pu
er re
P A
pa rer</w>
campai gn</w>
dise ase</w>
pre vention</w>
cir const
fer a</w>
ouver te</w>
strong ly</w>
ex pan
b ul
sé par
enorm ous</w>
repr ises</w>
supplément aire</w>
t ar
fic its</w>
b ad</w>
integr ated</w>
p e</w>
He alth</w>
Program me</w>
Is lam
ac ement</w>
lim ites</w>
sym bo
b ank</w>
f are</w>
fin alement</w>
high li
équ itable</w>
avanc er</w>
I s</w>
d est
vi g
co ver</w>
ç ant</w>
Pol and</w>
en ci
procé der</w>
ré p
sci ence</w>
ser vi
stati sti
politici ans</w>
bur den</w>
Ave c</w>
au raient</w>
ig nor
N evertheless</w>
rév él
éti ques</w>
f rapp
orig in</w>
ré si
Ag enda</w>
occa sions</w>
op tions</w>
cy cle</w>
subst ance</w>
inform ed</w>
cap ables</w>
g es</w>
dé es</w>
dé part</w>
Oc tob
Aus tri
recommend ations</w>
min orités</w>
un able</w>
C i
chil d</w>
man date</w>
approvisi onnement</w>
inst ance</w>
engag er</w>
in cit
thou sands</w>
O T
mechanis ms</w>
Th ank</w>
l ac
Octob er</w>
a ke</w>
off rir</w>
C E
discu ter</w>
élev és</w>
mor al</w>
lim iter</w>
Ru les</w>
lead er</w>
introdu ire</w>
saf e</w>
li qui
enti èrement</w>
communi ties</w>
wor ked</w>
I S</w>
entrepr en
tin gs</w>
as king</w>
to p</w>
améric ains</w>
oc tob
fem me</w>
octob re</w>
représent ant</w>
be ar</w>
fondament ales</w>
trouv ent</w>
s port</w>
Itali an</w>
b anc
substanti al</w>
on ally</w>
st af
add ressed</w>
fir stly</w>
pay er</w>
E gyp
get ting</w>
s ent
meth ods</w>
contin ues</w>
p aci
tal ks</w>
mér ite</w>
E m
grad u
f il
syst é
ain t</w>
ins ister</w>
consist ent</w>
e es</w>
pos es</w>
ré flexi
NA TO</w>
produc tive</w>
recogn ise</w>
satis faction</w>
v an</w>
mon tant</w>
pass eng
ti mat
in er</w>
au che</w>
tr a</w>
ri es</w>
si l
dec ades</w>
dis cipl
lo is</w>
staf f</w>
b a
exac tly</w>
charg es</w>
dépu té</w>
co vered</w>
main ly</w>
timat ely</w>
rev ê
ab st
si gn</w>
oubli er</w>
ag issant</w>
religi ous</w>
b at
memb ership</w>
Turk ish</w>
ati es</w>
ch ré
is ra
pour su
éche c</w>
me rely</w>
mo bi
ag ing</w>
net work</w>
f f</w>
sh ared</w>
t old</w>
Pour tant</w>
b lis
trans atlanti
deleg ation</w>
ur ally</w>
I D
ag ences</w>
religi on</w>
lu mière</w>
stand ard</w>
faud rait</w>
ph én
pros per
pres er
ani an</w>
pay ments</w>
J oh
bénéfici er</w>
initi al</w>
for get</w>
déci der</w>
ex port</w>
modi fier</w>
po l</w>
che fs</w>
r al
terr ain</w>
précé dent</w>
concern és</w>
immedi ate</w>
vi vre</w>
b ab
er al</w>
mala die</w>
P ologne</w>
it ables</w>
Con férence</w>
ch im
vul ner
v éri
dit ors</w>
M on</w>
origin al</w>
Strate gy</w>
e ant</w>
mo t</w>
Ag ency</w>
Christi an</w>
immedi ately</w>
pu tting</w>
mo ts</w>
renew able</w>
fais ons</w>
g ical</w>
é cr
ur ing</w>
législ atif</w>
disast er</w>
effic acement</w>
ar tic
phén om
T un
rap id</w>
c ess
im age</w>
moder n</w>
regret table</w>
Al b
inclu des</w>
ta int
he av
po ids</w>
élec tion</w>
th u
follow ed</w>
ob vious</w>
mo tiv
lin ked</w>
k i</w>
see king</w>
simpli fication</w>
bureau crati
sensi tive</w>
part ag
méth odes</w>
pen al
pl en
op h
acc él
t reaty</w>
b one</w>
ré serves</w>
l ant</w>
Cu ba</w>
tex ti
bo ard</w>
flexi bilité</w>
resol ve</w>
fa ites</w>
p ic
d an
Pl us</w>
régu li
pow er
traff ic
mutu al</w>
inter venir</w>
proc ès</w>
deman des</w>
lo gique</w>
pu blis
actu al</w>
impro vement</w>
invest ments</w>
bil atér
continu ing</w>
financ er</w>
ri e</w>
exécu tion</w>
r ange</w>
i an</w>
judici aire</w>
chin ois</w>
offici als</w>
Ar ab
acti fs</w>
targ et</w>
déc ou
ten d</w>
cen tres</w>
famili es</w>
r ich</w>
t el
servi r</w>
Ara b</w>
u su
concent rer</w>
l aid</w>
f as
or gi
mo indre</w>
att acks</w>
orient ation</w>
souhait ons</w>
franç ais</w>
t u</w>
der al</w>
fac ed</w>
pou ss
su d</w>
dé mi
tiv ity</w>
canc er</w>
s end</w>
ent rer</w>
wh at
réalis é</w>
Comm ent</w>
p un
posi tifs</w>
protoco le</w>
Environ ment</w>
aw ar
c ra
so ir</w>
an dis
g ender</w>
mo itié</w>
safe gu
coun ter
ab ord
v illes</w>
sm an</w>
taint y</w>
cer tainty</w>
f ar
pre ven
E M</w>
cont re
appli es</w>
aver age</w>
dom s</w>
Min isters</w>
fac ile</w>
ten ue</w>
emerg ing</w>
OT AN</w>
isi e</w>
repr ise</w>
expli quer</w>
sp ace</w>
et tes</w>
La dies</w>
alis tic</w>
arri ve</w>
ext érieure</w>
d omm
territ ory</w>
as sure</w>
cro y
rich es</w>
V ice</w>
in suffis
r ying</w>
the reby</w>
Gr ande</w>
tradi tional</w>
go sl
anci en</w>
montr ent</w>
mor ning</w>
autom ob
fu sion</w>
guarante es</w>
figu res</w>
évalu er</w>
p re</w>
histori que</w>
shor t
an ties</w>
larg est</w>
Ver ts</w>
rejec ted</w>
ch au
enseign ement</w>
fisc ale</w>
N ice</w>
G iv
d is</w>
br inging</w>
Li by
fo res
ill s</w>
Bel gi
b in
ec u
par ents</w>
con citoyens</w>
cul tures</w>
ten tion</w>
L A
lo y
re le
s en</w>
defin ition</w>
degre e</w>
au to
sit ting</w>
demand ons</w>
vér itablement</w>
regis tr
desi re</w>
liber alisation</w>
minu tes</w>
er reur</w>
actu elles</w>
olo giques</w>
p ire</w>
seu ls</w>
dru gs</w>
orient ations</w>
terroris t</w>
O s</w>
n ér
sub mitted</w>
Ag ence</w>
R E
par lons</w>
co her
n ée</w>
souti ent</w>
F re
G ro
N ig
renouvel ables</w>
E astern</w>
plé nière</w>
atu res</w>
regul atory</w>
gar anties</w>
is ant</w>
it aires</w>
dé plac
manif es
re jo
tu rel</w>
frau d</w>
de signed</w>
mé d
tot ale</w>
am pl
convainc u</w>
export ations</w>
dis ant</w>
ent re
fis h</w>
mi grants</w>
contro ls</w>
régi onal</w>
vul nér
parliam ents</w>
sub ventions</w>
w on
concr ètes</w>
il st</w>
su jets</w>
ME Ps</w>
circonst ances</w>
ur b
mo bilité</w>
ati que</w>
ré serve</w>
aff airs</w>
i er</w>
institu tionnel</w>
exam ine</w>
lin gu
pres ent
impli cations</w>
st atis
A gr
dé ficit</w>
ren contr
reven u</w>
Gre ek</w>
in e
Israel i</w>
arrang ements</w>
deal t</w>
g ri
experi enc
m ation</w>
stat ements</w>
S ME
great est</w>
r ul
envis ager</w>
pos s
par lements</w>
mati n</w>
t a</w>
ali ties</w>
por tu
scienti fique</w>
trans actions</w>
port ant</w>
anti cip
réuss ite</w>
n our
établ issement</w>
sup pli
él aborer</w>
clas si
deb ates</w>
SME s</w>
employ ed</w>
go als</w>
dev ait</w>
op les</w>
S ar
caractér is
J o
ed ly</w>
keep ing</w>
L ond
i ght</w>
tri bun
rel ever</w>
fact ors</w>
con tient</w>
tiv ely</w>
Agr icul
expri mé</w>
isl am
chiff res</w>
lim ite</w>
super vision</w>
Giv en</w>
S h
meth od</w>
ad voc
re main
mat éri
moy enne</w>
contr aign
s ev
B ret
rap proch
fac teurs</w>
sup ports</w>
pr end</w>
ori z
ag ner</w>
protec ting</w>
énor me</w>
car bon</w>
ar ily</w>
bil ateral</w>
organis ed</w>
th ème</w>
tru ly</w>
ab oli
p il
port ée</w>
Tro isi
re ad</w>
fo re
continu ed</w>
exerc ise</w>
re venir</w>
et ed</w>
t ables</w>
B re
pro che</w>
pers ons</w>
ac ting</w>
hon or
Can ada</w>
t ory</w>
cont ains</w>
ex ic
oppos ed</w>
a p</w>
suff ering</w>
vol un
s ation</w>
C I
E st
Bar cel
cl é</w>
té mo
inten tions</w>
S ou
mono po
communaut és</w>
mul tin
exten d</w>
véhic ules</w>
n avi
pos ée</w>
wor se</w>
e ded</w>
r ur
Br it
P aper</w>
condu ite</w>
Ju ly</w>
essenti els</w>
Wi th
du rée</w>
tes ts</w>
In stitu
modi fications</w>
sp ent</w>
Accor ding</w>
fin s</w>
A S
élec teurs</w>
def end</w>
subsi dies</w>
vou d
Wh y</w>
s ound</w>
L am
différ ence</w>
facil iter</w>
opér ations</w>
sembl ent</w>
val u
affir mer</w>
will ing</w>
G en
b ases</w>
co t
ext érieur</w>
st ade</w>
disponi bles</w>
suiv ante</w>
répon ses</w>
rest ent</w>
différ ences</w>
v ais</w>
Euro pol</w>
dest ro
remar ques</w>
ju illet</w>
larg ely</w>
ré action</w>
a ises</w>
or es</w>
r ation</w>
diffici les</w>
u le</w>
L ati
W ar</w>
accid ent</w>
civi li
accompl i</w>
cus sions</w>
gar der</w>
A n</w>
princip ales</w>
star ting</w>
re ply</w>
y a</w>
int érieures</w>
ver t</w>
met tent</w>
pe oples</w>
Pro ce
inf ec
re au</w>
Ham as</w>
intern et</w>
un ité</w>
ambi tion</w>
am oun
chem in</w>
d ings</w>
fam illes</w>
invol vement</w>
sin c
constru ire</w>
th è
et age</w>
perform ance</w>
sup pl
wor th</w>
f al
ch è
stric t</w>
On ly</w>
d ents</w>
au rons</w>
inst ant</w>
ress ing</w>
reason able</w>
essenti ellement</w>
wel fare</w>
olo gie</w>
f ail</w>
mo bility</w>
peti t</w>
de e
intég rer</w>
Am éric
contrô ler</w>
ig no
in a</w>
civ il
nég lig
pen sions</w>
utilis és</w>
lim its</w>
préserv er</w>
du m
glob alisation</w>
immédi atement</w>
rég ul
hau te</w>
as pir
consomm ateur</w>
expan sion</w>
mati ères</w>
for tement</w>
è ces</w>
er ia</w>
nei ther</w>
op pose</w>
crimin alité</w>
meill eures</w>
déla i</w>
i m</w>
E r
ref lè
ren du</w>
utilis é</w>
sign é</w>
arm ac
ori e</w>
us age</w>
sp ir
seri es</w>
appe ars</w>
é do
contribu é</w>
ri v
G al
plann ing</w>
beh avi
tur ned</w>
ci ties</w>
Ber lin</w>
P act</w>
k et</w>
prof its</w>
fi ghting</w>
cal end
capac ités</w>
at oires</w>
arm ée</w>
d é</w>
vir tu
Q ue</w>
judici al</w>
pres ence</w>
rus se</w>
mauv aise</w>
rel atifs</w>
and a</w>
expl ain</w>
inter gouvernement
h oriz
rec ord</w>
exig e</w>
la w
march andis
en ab
ob tenu</w>
ext érieures</w>
a ître</w>
h ou
t ac
er gy</w>
altern atives</w>
ambiti eux</w>
relati vement</w>
technolo gical</w>
en ch
possib les</w>
ti di
sto od</w>
as ting</w>
Cy pr
Cypr us</w>
credi bility</w>
tionn els</w>
investiss eurs</w>
star ted</w>
att ack</w>
règ lements</w>
v olu
pass agers</w>
éti qu
play ed</w>
e ing</w>
res ting</w>
approuv é</w>
li ons</w>
él abor
v ite</w>
fondament ale</w>
e tings</w>
f le
pre sident</w>
appe al</w>
min ority</w>
per cussions</w>
organ es</w>
Char ter</w>
l d
resol ved</w>
comp lic
émer g
traffic king</w>
Brit ain</w>
min orities</w>
al co
Proce dure</w>
dis poser</w>
isra éli
ag en</w>
Cham ber</w>
détermin ation</w>
p ath</w>
repe at</w>
w arm
cent age</w>
frau de</w>
F rom</w>
en ess</w>
cham p</w>
graphi que</w>
as ks</w>
exerc er</w>
In st
plac es</w>
Pour quoi</w>
charac ter
w ai
com bien</w>
considér ablement</w>
actu els</w>
ti ennent</w>
se a</w>
trad ing</w>
vis as</w>
é gi
r ound</w>
us si</w>
as tric
iss ait</w>
co ali
di vers</w>
invol ving</w>
p es
M ol
euro zone</w>
re d
Améric ains</w>
aut omati
G lob
ap parti
ré tab
differ ence</w>
dét ail
ri l</w>
détermin er</w>
olo gy</w>
a c</w>
bl an
de ficit</w>
b ar
dise ases</w>
l ou
ré ussi</w>
tack le</w>
dispos ons</w>
méd iterran
happen ing</w>
A R
an e</w>
Amend ments</w>
Se a</w>
éner gies</w>
pris on</w>
uti n</w>
ê tres</w>
C z
M an
hear t</w>
is té</w>
ret ard</w>
crédi bilité</w>
in ti
refer endum</w>
speak ers</w>
fu el</w>
prépar ation</w>
remar que</w>
con ventions</w>
eng age</w>
multilat ér
subsidi arité</w>
ne ws</w>
navi res</w>
bru t
h t</w>
plan ète</w>
v ing
favoris er</w>
c op
in ég
ac ted</w>
P alesti
Palesti ne</w>
bin ding</w>
En ergy</w>
appro val</w>
avanc ées</w>
vulner able</w>
rapp elle</w>
e ties</w>
fir ms</w>
recommand ation</w>
wis hes</w>
commenc é</w>
vo ice</w>
high light</w>
quo tidi
te es</w>
M u
compati ble</w>
ad ress
res olutions</w>
s mo
any one</w>
critic ism</w>
occup ation</w>
prosp érité</w>
m eu
recommend ation</w>
me etings</w>
car bone</w>
r age</w>
commerci ale</w>
ent al</w>
defin ed</w>
compag nies</w>
propor tion</w>
I M
favor ables</w>
l ati
statisti ques</w>
b rev
cri ti
constitu tional</w>
dec isi
décen nies</w>
référ endum</w>
Pu bli
trav el</w>
R ec
l ever</w>
conduc t</w>
reach ing</w>
Ma astric
grat eful</w>
handic ap
Maastric ht</w>
compet ence</w>
conflic ts</w>
inclu re</w>
manufac tu
r i</w>
avi ation</w>
equi p
indi qué</w>
b omb
cont acts</w>
v aut</w>
nor d</w>
vi able</w>
enti ss
we alth</w>
I N
par tout</w>
subsidi arity</w>
Lati n</w>
pré al
investi r</w>
contro l
impos ed</w>
A pri
Fin anci
alim ents</w>
prog resser</w>
Apri l</w>
Z im
cha î
aff ai
fact or</w>
considér ables</w>
ra z
f ound
é conom
Th ose</w>
av es</w>
m iss
lanc er</w>
fai bles</w>
T ous</w>
ni c</w>
ri g
citoy en</w>
diver ses</w>
lo ss</w>
affec t</w>
ré el</w>
easi er</w>
av ril</w>
réalis és</w>
hel ping</w>
adop ting</w>
catastrop hes</w>
hum ain</w>
maj eure</w>
bi gg
bénéfic es</w>
ra di
Ge orgi
compl ète</w>
expl an
ver si
S ol
comp liance</w>
ré pét
d us
inte resting</w>
adap tation</w>
end or
val ent</w>
arri ver</w>
complex e</w>
gener ally</w>
onn é</w>
t our</w>
reflec t</w>
individu als</w>
chau ff
air man</w>
gran ted</w>
ari o</w>
c al</w>
région ales</w>
vehic les</w>
accep té</w>
concl u</w>
land aise</w>
do w
inc en
exac tement</w>
Bulgari a</w>
ouv re</w>
mo ving</w>
permet tent</w>
Eu ro</w>
g ain</w>
permettr ait</w>
D espite</w>
dis charge</w>
Financi al</w>
Con cer
st re
réc ente</w>
ten sions</w>
ul ture</w>
N E
de ad
distinc tion</w>
CO M</w>
environnement ale</w>
unanim ité</w>
Swe den</w>
care fully</w>
par lement</w>
professionn elle</w>
tour ism</w>
génér alement</w>
cl e
comb attre</w>
correc tement</w>
concern ées</w>
b es</w>
gr ant</w>
P ays</w>
g ave</w>
tot ally</w>
ex ports</w>
puis qu</w>
év olu
encourag ing</w>
t onnes</w>
P SE</w>
Publi c</w>
el ement</w>
ph armac
justi fi
pê ch
be l</w>
o therwise</w>
soci aliste</w>
mas s</w>
a di
h ours</w>
traff ic</w>
de hors</w>
part ner</w>
whe re
fer mement</w>
S truc
gi ble</w>
ver tu</w>
o ts</w>
condu it</w>
estim ons</w>
h im
r ail</w>
emphasi s</w>
exist ent</w>
plen ary</w>
suff it</w>
ex ecu
LA F</w>
grap h
lo ir</w>
vi e
vi vent</w>
impro vements</w>
ou i</w>
Inst ead</w>
N ational</w>
L eg
ul timately</w>
D ès</w>
oper ations</w>
pour rions</w>
â ge</w>
T re
accr ue</w>
ain te</w>
c ore</w>
envis ag
opportun ité</w>
prosper ity</w>
recogn ised</w>
Troisi èmement</w>
dé charge</w>
n on
reig n
dépl oy
Mal gré</w>
li en</w>
adop tées</w>
éri ques</w>
b att
princip ale</w>
re ject</w>
y m
d an</w>
on ais</w>
sol ve</w>
con jo
ris ing</w>
étrang ers</w>
réflexi on</w>
ten ant</w>
naturel les</w>
organis mes</w>
prof iter</w>
compl y</w>
v aste</w>
explo it
ampl eur</w>
M I</w>
S an
associ ated</w>
en try</w>
prob ation</w>
employ ees</w>
lo se</w>
obstac le</w>
stru gg
applic able</w>
f asse</w>
func tioning</w>
m én
Thir dly</w>
d ai
m ach
mentionn é</w>
cré é</w>
rou ti
Rom a</w>
equ ally</w>
M ore</w>
a que</w>
e duc
fact ory</w>
raisonn able</w>
vo ient</w>
Agricul ture</w>
marchandis es</w>
mouv ement</w>
a sion</w>
Struc tural</w>
bi r
bi en
evalu ation</w>
parven us</w>
spe ed</w>
déb att
it age</w>
minu te</w>
éri eurs</w>
ne w
pré parer</w>
qu it
b ol
visi ble</w>
import ations</w>
invol ve</w>
diver si
lan gue</w>
trans formation</w>
lan gues</w>
stoc k</w>
sub s
man age</w>
eth nic</w>
te red</w>
ti onne</w>
trans form
Bret agne</w>
chang ing</w>
si f</w>
prec ed
Bu reau</w>
arb it
elec tor
ati ques</w>
p es</w>
t ête</w>
dum ping</w>
oun ded</w>
det ailed</w>
et er</w>
trouv é</w>
ag grav
i k
gr ounds</w>
prop ag
propos ing</w>
Syri a</w>
depend ent</w>
So vi
rev anche</w>
ch ef</w>
tri ed</w>
è vement</w>
particip ate</w>
int end</w>
rég imes</w>
s ites</w>
constitu er</w>
pri m
préf ér
ambi tions</w>
souver ain
peac eful</w>
B ec
F ed</w>
Bulgari e</w>
arrê t</w>
cat eg
convic tion</w>
destin és</w>
industri elle</w>
dis ap
facilit ate</w>
sal aires</w>
Au t
a th
insur ance</w>
to ward</w>
power ful</w>
strong er</w>
é par
tru th</w>
ar d
Fun ds</w>
S a
professi onal</w>
f ré
o te</w>
si as
sim ul
allow ing</w>
sur pris
Su ède</w>
free doms</w>
étro ite</w>
dép it</w>
règ le</w>
Zim bab
ro vi
â g
ré ment</w>
pouv ait</w>
commit tees</w>
pres sions</w>
re conn
rem pli
A v
v ille</w>
B raz
enti ves</w>
justi fied</w>
gener ation</w>
no tion</w>
g auche</w>
ven u</w>
pos ent</w>
fer rovi
is on</w>
peti te</w>
clai m</w>
g ur
puis sions</w>
souhait ent</w>
ach es</w>
ap probation</w>
ent y</w>
liber al</w>
legitim ate</w>
Sec ret
compl é
effec tiveness</w>
ri ère</w>
trans fer</w>
sup pression</w>
ét endre</w>
im ports</w>
del ay</w>
Americ ans</w>
ON G</w>
Per s
organis er</w>
regret te</w>
améric aines</w>
in al</w>
propri été</w>
pay ment</w>
Res earch</w>
proper ty</w>
atten d</w>
prob lé
él év
I m
ph ilos
O S
S ans</w>
en j
souten ons</w>
as h</w>
mu sul
syst em
st ands</w>
ess ing</w>
per dre</w>
pre sid
m ur
A no
h érence</w>
coali tion</w>
Swe dish</w>
pre fer
B E
invest ors</w>
lear n</w>
sk i</w>
artic les</w>
declar ation</w>
B i
comp ter</w>
eth eless</w>
modern isation</w>
Ano ther</w>
ploy ment</w>
li ens</w>
pursu e</w>
in cl
per du</w>
préc is</w>
associ ations</w>
déla is</w>
Re gi
fran ch
s cep
sur vi
enti t
ing ton</w>
trans port
pre dic
F l
fu tures</w>
g one</w>
environnement ales</w>
Par is</w>
fir m</w>
vis it</w>
p sy
s ses</w>
al d</w>
coll ap
or ation</w>
consolid ation</w>
co hérence</w>
im men
pr un
ré clam
bre ak</w>
flo or</w>
m acro
negoti ating</w>
observ ation</w>
ti se</w>
ab sur
determin ation</w>
pai ement</w>
re alistic</w>
sec ré
nat urally</w>
represent ative</w>
leg ally</w>
S i
demonstr ated</w>
ple in</w>
dev rons</w>
fon dée</w>
rapp el
chin o
ar ing</w>
sugg est</w>
é lo
St ability</w>
e ding</w>
opér ationn
t ary</w>
mon ter</w>
over come</w>
Copenh agen</w>
on t
all ou
comb in
sym pa
monit or</w>
alis é</w>
ro r</w>
li é</w>
ti e</w>
adéqu ate</w>
au di
i ve</w>
la is</w>
Copenh ague</w>
s li
alis ée</w>
maj eur</w>
r ad
sac ri
er y</w>
inter ne</w>
pl ur
s ch
at ell
présid ents</w>
on ie</w>
cep tion</w>
ser ons</w>
No t</w>
Syri e</w>
wr it
culturel le</w>
eu t</w>
des sus</w>
respec ted</w>
sove reign
comp ared</w>
dange reux</w>
Aus si</w>
om bi
At lanti
sp h
é der</w>
accomp agn
af ter
phénom ène</w>
g érer</w>
interest ed</w>
pour suite</w>
is tic</w>
flu x</w>
trim ent</w>
di vision</w>
comment aires</w>
s cru
vér ité</w>
cer tes</w>
ur ban</w>
h ands</w>
lin k</w>
dé tru
è ge</w>
lat est</w>
cro ire</w>
ass ass
inqui études</w>
clo sed</w>
hist or
premi ers</w>
wi d
É tant</w>
L iv
tax e</w>
établ i</w>
s ite</w>
em prun
gosl av
V an</w>
b re</w>
fonctionn aires</w>
Au ditors</w>
adap ter</w>
th or
appropri ée</w>
re vient</w>
f rais</w>
poli tically</w>
fé dér
ro les</w>
mauv ais</w>
bene fici
destin ées</w>
tol er
w an</w>
announc ed</w>
citiz en</w>
législ atives</w>
souverain eté</w>
export ation</w>
se where</w>
commun s</w>
concentr ation</w>
ving t</w>
ther lands</w>
l ées</w>
liqui d
EC B</w>
fer me</w>
M ill
Ne therlands</w>
onn ée</w>
Cz ech</w>
ma kers</w>
sep t</w>
è nes</w>
fri end
B CE</w>
L ors</w>
ar k</w>
c ity</w>
Y or
ab ilities</w>
pos ées</w>
essay er</w>
H el
j ur
straté gies</w>
C l
dépen d</w>
meill eurs</w>
eng end
tempor ary</w>
û t</w>
er aient</w>
obt ain</w>
protec ted</w>
expec tations</w>
législ ative</w>
si vely</w>
sovereign ty</w>
calend rier</w>
pass ed</w>
séri eusement</w>
sum er</w>
réfléch ir</w>
strate gies</w>
continu ent</w>
emerg ency</w>
sensib il
étrang er</w>
aux quelles</w>
accoun ts</w>
ser t</w>
s év
high est</w>
identi té</w>
assu me</w>
awar eness</w>
pr ennent</w>
sec ret</w>
Ch yp
adv anced</w>
dé marche</w>
é th
li ers</w>
sal ari
signific antly</w>
ré ussi
certi tude</w>
sh ad
Chyp re</w>
pai ements</w>
Per haps</w>
bu d
fin e</w>
Soci alist</w>
assum er</w>
n ent</w>
per te</w>
comm issions</w>
tre ated</w>
d ite</w>
ambi gu
ent end</w>
i res</w>
kno ws</w>
R ome</w>
ad ly</w>
c esse</w>
préoccup ation</w>
ni er</w>
parti tion</w>
prob able</w>
at mo
cons is
demonstr ate</w>
hol ders</w>
ré sol
amoun ts</w>
cal cul
Mer ci</w>
direc te</w>
B l
attend ons</w>
complé ment
re port
tric ité</w>
conserv ation</w>
le y</w>
pr ag
guarante ed</w>
technolo gique</w>
priv ée</w>
pro ve</w>
rédu it</w>
un less</w>
propos ée</w>
uti les</w>
ô ts</w>
wor ld
for ê
el sewhere</w>
lanc é</w>
li vre</w>
min isters</w>
off ers</w>
dra wing</w>
fo ot
in age</w>
det ail</w>
pr o</w>
priv és</w>
tent ative</w>
Com p
ent ôt</w>
se l</w>
ét er</w>
Zimbab we</w>
a éro
lé gitim
tor ture</w>
é ni
appli que</w>
pro long
Sovi et</w>
inqui étude</w>
un es</w>
cl aires</w>
enti ère</w>
orit aires</w>
Commission ers</w>
con que</w>
ill ustr
vi ande</w>
de ep</w>
for th
primar ily</w>
s se</w>
num erous</w>
Islam ic</w>
conclu ded</w>
fact eur</w>
K ur
in form</w>
soci eties</w>
ann ex
mis si
O m
rel ance</w>
énor mes</w>
C as
act ors</w>
M éd
suiv ant</w>
b ons</w>
dang ers</w>
en forc
Ac tion</w>
chè que</w>
fonc tionne</w>
huma ines</w>
langu ages</w>
O R
cont am
ad ul
jou é</w>
gén ération</w>
man t
pri me</w>
ven ue</w>
conna ître</w>
disast ers</w>
diver g
for um</w>
transfer t</w>
let tre</w>
élec tricité</w>
fir m
k er</w>
pro hi
instau rer</w>
r h
am ong
among st</w>
mondi aux</w>
B as</w>
compr ends</w>
cul turel</w>
op s</w>
cent aines</w>
ou d</w>
recev oir</w>
sexu al</w>
ign ore</w>
mor t
ab ol
separ ate</w>
ad just
ay ons</w>
b ers</w>
met tant</w>
ne ar</w>
tec tion</w>
comport ement</w>
sor tir</w>
ter ing</w>
N on</w>
ban king</w>
exemp les</w>
g ress</w>
intergouvernement ale</w>
writ ten</w>
tradi tions</w>
oper ate</w>
c s</w>
fi ce</w>
fronti ère</w>
exist antes</w>
ali zed</w>
W ash
ast ly</w>
barri ers</w>
Méd iterran
Qu ant</w>
progres sive</w>
what ever</w>
territori al</w>
ad resser</w>
ong ro
F MI</w>
In don
Wash ington</w>
an nivers
anci ens</w>
sugges tions</w>
wh ilst</w>
buil t</w>
refu se</w>
approuv er</w>
hel ped</w>
syn dic
oun ding</w>
Al g
du es</w>
low s</w>
ed y</w>
inv est</w>
o es</w>
allè lement</w>
bi entôt</w>
r un
determin ed</w>
go t</w>
m ette</w>
pur poses</w>
dépend ance</w>
pl ani
acc um
ch é</w>
Mar ket</w>
b all</w>
extrê me</w>
medic al</w>
scho ol</w>
W omen</w>
im mun
in o</w>
min ist
pharmac eu
considér é</w>
ex pen
safegu ard</w>
n et</w>
propos es</w>
é enne</w>
deli ghted</w>
itu res</w>
fo rest
Méditerran ée</w>
vou loir</w>
inform er</w>
install ations</w>
ter re</w>
W e
A p
Fr an
exis ts</w>
jou e</w>
primar y</w>
fu els</w>
Bec ause</w>
K ar
auth oris
loc aux</w>
dru g</w>
féli cit
custom s</w>
compl ètement</w>
proc u
évo qué</w>
m ans</w>
pré venir</w>
tric ity</w>
shi p
propos és</w>
i les</w>
énerg étiques</w>
on going</w>
rel ève</w>
atta quer</w>
st ations</w>
endor se</w>
tr ac
Fe bru
Febru ary</w>
allow s</w>
fi f
préc ise</w>
Egyp t</w>
lu sion</w>
t aille</w>
exam ples</w>
k o</w>
pass age</w>
fix er</w>
h al
s even</w>
S to
li ée</w>
t élév
f év
individu s</w>
réglement ations</w>
si ze</w>
en om
fév rier</w>
uc tu
world wide</w>
pur ch
conv enti
erre urs</w>
inter médi
A sh
Yor k</w>
remar qu
H igh</w>
quali fications</w>
réuni ons</w>
particip ants</w>
terri ble</w>
H I
beg an</w>
cohér ente</w>
succe ed</w>
appr ouve</w>
mo de</w>
n omm
der a</w>
tent er</w>
As semb
alis és</w>
la d</w>
suscepti bles</w>
é or
ext re
Ru le</w>
dro ite</w>
ne arly</w>
D oh
ab use</w>
différ ente</w>
relati vely</w>
fab ric
secon de</w>
requi rement</w>
ré solutions</w>
er r
Doh a</w>
am b
conna ît</w>
S im
re rs</w>
D ut
dé ment</w>
pers onally</w>
Assemb ly</w>
proc esses</w>
aboli tion</w>
appropri é</w>
as s</w>
orient ale</w>
dé posé</w>
fru it</w>
tri al</w>
ver b
fel t</w>
dec ade</w>
fré qu
identi ty</w>
trans f
Bal tic</w>
anc ing</w>
consci ents</w>
in dé
tu des</w>
En g
amélior ations</w>
ell ed</w>
bec ame</w>
cont ained</w>
elec tricity</w>
commiss aires</w>
Secret ary</w>
inég alités</w>
schem e</w>
vis ite</w>
voul u</w>
volu me</w>
dign ité</w>
volun tary</w>
au rions</w>
ar rest
bud sman</w>
materi al</w>
iss ements</w>
ri d</w>
ten ues</w>
T E
un ity</w>
vo is</w>
s pread</w>
arm ed</w>
repres ented</w>
ten ed</w>
atta ques</w>
doub tedly</w>
ext ended</w>
preven ting</w>
decisi ve</w>
par aît</w>
la m</w>
plann ed</w>
t asks</w>
men aces</w>
transi t</w>
Leg al</w>
el ing</w>
ep t</w>
pêch eurs</w>
Qu and</w>
suppri mer</w>
P utin</w>
dign ity</w>
forth coming</w>
multin ation
re connu</w>
Fr amework</w>
ir landais</w>
minis ter</w>
ab us</w>
dé faut</w>
per p
hol ding</w>
no ted</w>
satis factory</w>
under stood</w>
dipl om
ev ening</w>
Qu estion</w>
exist ants</w>
hol ds</w>
sub se
cooper ate</w>
PA C</w>
ag ency</w>
sa w</w>
sc en
coordin ated</w>
déb attre</w>
tab ac</w>
histori c</w>
men ée</w>
add am</w>
ap porte</w>
CA P</w>
acc o</w>
descri bed</w>
par ad
so vi
al liance</w>
wle dg
L ast</w>
multilat eral</w>
ren d</w>
Dut ch</w>
signal er</w>
univers al</w>
constitu tionnel</w>
g lad</w>
st es</w>
I F
M exic
apport é</w>
dynam ique</w>
éch é
soli de</w>
appu i</w>
automob ile</w>
S addam</w>
in ev
In dus
fer met
lati ne</w>
sp here</w>
con ç
fai r
termin er</w>
per tes</w>
britan niques</w>
t omb
expli cit
esp érer</w>
dem eure</w>
démi e</w>
lat ter</w>
ré side</w>
p ap
remar ks</w>
y es</w>
fi gur
let ter</w>
stabil isation</w>
IM F</w>
garanti ss
off ered</w>
tur ning</w>
augment é</w>
f e</w>
H ere</w>
cid ent</w>
g agn
con cré
f ro
lab elling</w>
H u
concern ent</w>
int ol
sel ec
ci des</w>
deli ver</w>
dé cri
fo ssi
alloc ated</w>
cam ps</w>
cl és</w>
pl aying</w>
ajou tée</w>
car s</w>
développ és</w>
en registr
statis tics</w>
éch ou
s auv
demo crati
ul t
personn ellement</w>
ti g
to ol</w>
trav er
adv ance</w>
concep tion</w>
aéri en</w>
sau ve
innov ative</w>
sk ills</w>
la h</w>
rest au
an es</w>
happ ens</w>
in com
focus ed</w>
pro ved</w>
y ons</w>
den i
ch al
chap it
const ant</w>
ir ait</w>
ad ver
la isse</w>
par avant</w>
ag ence</w>
lab or</w>
Braz il</w>
enom en
ph enomen
en trav
ch ing</w>
publis hed</w>
urg ently</w>
vi es</w>
sh oc
un ited</w>
Char te</w>
rad ical</w>
stu dies</w>
environnement aux</w>
in év
ga p</w>
produc tivité</w>
t chèque</w>
cu ts</w>
essenti elles</w>
incre ases</w>
pré vue</w>
low ing</w>
bur g</w>
Liv re</w>
administr atives</w>
oc cur
Col ombi
dev ient</w>
ou rir</w>
organi z
on ing</w>
thre ats</w>
g en</w>
organis é</w>
prepar e</w>
vois inage</w>
D uring</w>
e x</w>
elec tron
rapid ly</w>
we ak</w>
capit ale</w>
firm ly</w>
maint aining</w>
Budg ets</w>
difficul té</w>
resul ting</w>
alloc ation</w>
in dem
diplomati c</w>
dem eu
vulnér ables</w>
chré tiens</w>
produc tivity</w>
con fusion</w>
ins iste</w>
pers ist
rec y
ement ary</w>
farm ing</w>
A ss
z y</w>
priv atis
re cru
sustain ability</w>
é rés</w>
prê t</w>
un doubtedly</w>
Th en</w>
Av ant</w>
him self</w>
o x
p éti
inv es
part ly</w>
co décision</w>
Georgi a</w>
av o
propos ées</w>
re pose</w>
strength ened</w>
eu reusement</w>
it ant</w>
pi lier</w>
revê t</w>
allem ande</w>
hu it</w>
dre ds</w>
sib les</w>
suff er</w>
cro issante</w>
lear ning</w>
r ail
ill ing</w>
jo y</w>
présent ée</w>
Par ti</w>
ré partition</w>
y s</w>
indi que</w>
ré dig
enf ant</w>
él ar
Th us</w>
contribu e</w>
prepar ing</w>
soci o</w>
En suite</w>
ef ly</w>
L astly</w>
becom es</w>
entit led</w>
ackno wledg
l t</w>
r assemb
cho ose</w>
consid ering</w>
formul er</w>
cli matiques</w>
in sul
appro ve</w>
n a
génér ales</w>
B rési
texti le</w>
cl ar
observ ations</w>
profon dément</w>
confir med</w>
multi pli
oper ating</w>
ab sor
fin ding</w>
or ateurs</w>
O N</w>
Om budsman</w>
appropri ations</w>
avanc ée</w>
ni a</w>
travail lent</w>
extre me</w>
h am
per ç
ré serv
c ab
flo t
k ept</w>
parten aire</w>
com pe
arg o</w>
ban que</w>
lin ed</w>
pos te</w>
ren for
discipl ine</w>
U N
de gré</w>
sup pose</w>
ver ing</w>
b it</w>
distin gu
oper ators</w>
appar aît</w>
mi li
penal ty</w>
ass ets</w>
men ées</w>
nav ig
popul ar</w>
inc entives</w>
B R
sav ings</w>
laun ched</w>
prot es
vis er</w>
f eu</w>
fac ts</w>
dri ving</w>
invol ves</w>
z u
g rec
O LAF</w>
abouti r</w>
par liament</w>
étiqu etage</w>
orit aire</w>
remar quer</w>
comm en
deven u</w>
sub stitu
ev entu
o v
fiel ds</w>
ass ist
att entes</w>
conse il</w>
légitim ité</w>
tob acco</w>
diminu tion</w>
moder ne</w>
ressor tiss
par l
N at
ra le</w>
su red</w>
Y u
préc iser</w>
to ols</w>
ac qui
rur ales</w>
boo st</w>
prés ents</w>
ra k
incom be</w>
F i
pas s</w>
fi ant</w>
defin e</w>
fru its</w>
g ene
mi d</w>
pill ar</w>
ré agir</w>
confir m</w>
func tion</w>
equip ment</w>
oc curr
spo ken</w>
ff s</w>
mar ge</w>
advant ages</w>
contr acts</w>
im pres
aut rement</w>
inten sive</w>
pens ent</w>
activ ement</w>
am is</w>
au paravant</w>
e able</w>
is é</w>
produc ing</w>
sil ence</w>
ér ance</w>
bas ée</w>
believ es</w>
Brési l</w>
S au
re b
utilis ées</w>
re traite</w>
reflè te</w>
sou mettre</w>
clai ms</w>
r able</w>
affir me</w>
w ent</w>
affir m
const ate</w>
w ait</w>
influ enc
occident aux</w>
dispos ent</w>
ra ce</w>
coll abor
v ac
franç aise</w>
R ap
imag ine</w>
s é</w>
EC U</w>
some what</w>
tro m
D en
Pro toco
dow n
passeng ers</w>
c les</w>
ir ani
opportun ités</w>
rou tes</w>
eff ond
su spec
su it</w>
arti fici
introduc ing</w>
pren ant</w>
v ague</w>
D el
p eur</w>
é p
acces sible</w>
bâ ti
NG Os</w>
oper ational</w>
organis ée</w>
tex tes</w>
déb ou
travail lé</w>
H ong</w>
prospec ts</w>
abst en
sp éc
K ong</w>
appreci ate</w>
Croati a</w>
ati cally</w>
diri g
Nig eria</w>
excell ente</w>
h ongro
Ti b
ad resse</w>
la red</w>
tâ ches</w>
fi ées</w>
ré percussions</w>
ré un
M a</w>
larg er</w>
ni ers</w>
ré mun
ho sti
br ings</w>
conna issances</w>
preu ves</w>
re iter
ré solu
mutu elle</w>
ro om</w>
spo ke</w>
et er
exig er</w>
res ses</w>
restructur ing</w>
ti enne</w>
condu ire</w>
shad ow</w>
With out</w>
aff ron
région aux</w>
Concer nant</w>
ra dio
Her z
applic ations</w>
banc aire</w>
run ning</w>
pl aisir</w>
ter ons</w>
Palestini ens</w>
ent end
outi ls</w>
pl ants</w>
structurel les</w>
in ts</w>
pr ing</w>
prom p
proven ance</w>
M i
Pro tection</w>
dét ails</w>
réc ession</w>
r ang
th ly</w>
tr ali
vig il
comb us
dou ani
friend ly</w>
histor ical</w>
p aper</w>
quali fied</w>
civ ils</w>
su sc
é rée</w>
Au tric
fi re</w>
gr ès</w>
respec tive</w>
As soci
dist ance</w>
envoy er</w>
ass ess</w>
dec line</w>
ev ision</w>
G éor
Géor gie</w>
pru dence</w>
P r
const antly</w>
po o
C F
cour ant</w>
re vision</w>
In v
Sto ck
nu tri
Croati e</w>
av ais</w>
T im
allem and</w>
dec lared</w>
di agno
coher ent</w>
heal thy</w>
pét ro
vis ed</w>
p esti
Pl an</w>
ag isse</w>
der rière</w>
easi ly</w>
us ers</w>
man n</w>
materi als</w>
vo ters</w>
mater n
bigg est</w>
M os
ar es</w>
re alise</w>
Hung arian</w>
ass ent</w>
consul tations</w>
facil ement</w>
tur b
E L
lead s</w>
intellig ence</w>
au ses</w>
fr ustr
fri ends</w>
Su b
gn ess</w>
legitim acy</w>
wor st</w>
form al</w>
mentionn er</w>
poo rest</w>
won der</w>
accél érer</w>
all ég
intéress ant</w>
A T</w>
B ang
indépend ants</w>
S af
civi les</w>
prati quement</w>
straté giques</w>
Le ban
ad ing</w>
gr and
rais ing</w>
ari a</w>
com ed</w>
compréhen sion</w>
gro s</w>
k il
paci fique</w>
recy cl
wel comed</w>
Serbi a</w>
acti f</w>
depend s</w>
regul ar</w>
é en</w>
Constitu tional</w>
T am
ag ents</w>
gre en</w>
pouv ez</w>
re mettre</w>
AL DE</w>
sc ène</w>
ten ing</w>
in gness</w>
aliment ation</w>
introdu it</w>
ha z
post es</w>
O l
interpré tation</w>
secon d
viol ent</w>
tou che</w>
de a
ne l</w>
infr ing
sign ature</w>
end ro
unil atér
will ingness</w>
élimin er</w>
OS CE</w>
pré voir</w>
b out</w>
ple ine</w>
sou thern</w>
duc tions</w>
hun dreds</w>
fonctionn er</w>
présid ente</w>
dét ail</w>
mi lieu</w>
I C
is ée</w>
mark ed</w>
vis ent</w>
P outi
sur prise</w>
A uc
am es</w>
us er</w>
vir us</w>
mé dec
num bers</w>
re min
de z</w>
human ité</w>
n evertheless</w>
de pend</w>
respec te</w>
Pouti ne</w>
Re present
blan c</w>
bo ok</w>
fai bl
reques ted</w>
prog ress
b ann
appl ying</w>
S al
Wh ite</w>
direc trices</w>
tin i</w>
signific ative</w>
étro itement</w>
con ce
graphi c</w>
s atell
dro gue</w>
on a</w>
chois ir</w>
Palestini ans</w>
neu tr
G M</w>
fisher men</w>
onn és</w>
D an
men é</w>
rég ler</w>
em ed</w>
add ressing</w>
bel ow</w>
cl auses</w>
Fis her
Tre aties</w>
ch ute</w>
pres cri
p p
activ ely</w>
den rées</w>
i el
ic ations</w>
int érieure</w>
n esse</w>
r ation
end ront</w>
h abil
propor tion
Hung ary</w>
psy ch
préal able</w>
f ast</w>
imp ér
y n
libér aux</w>
O C
VI D</w>
arab e</w>
dé lic
envis age</w>
oblig atoire</w>
secon dly</w>
Fo od</w>
conserv er</w>
public ité</w>
st op
NE W</w>
P eut</w>
attend ent</w>
port é</w>
Austri a</w>
contradic tion</w>
prec ise</w>
re ve
concré tis
cor ri
electron ic</w>
g agner</w>
k in
palestini en</w>
prév ues</w>
T ri
chois i</w>
dé sign
CO VID</w>
du ties</w>
Nor thern</w>
contr ats</w>
im position</w>
pr ête</w>
arrê ter</w>
Oc cident</w>
com position</w>
coun ter</w>
dis ent</w>
sugg estion</w>
compr end</w>
ag issait</w>
organiz ations</w>
k el</w>
Q u</w>
Bo th</w>
G UE</w>
ackno wledge</w>
î tr
fisc ales</w>
ins ist</w>
quanti té</w>
accue il</w>
intég rée</w>
D o</w>
Par t
det ails</w>
Con go</w>
AL E</w>
clas s</w>
un fair</w>
vis u
é pi
C ri
extr a</w>
wi der</w>
Don ald</w>
nour r
repr endre</w>
rel ates</w>
si ght</w>
s ave</w>
Mo st</w>
N e</w>
t ellement</w>
H ong
in ess</w>
identi fy</w>
Trans port</w>
él è
ann oncé</w>
enforc ement</w>
assass in
dai ly</w>
see ing</w>
Fun dament
Secon d</w>
ev a</w>
l és</w>
m ass
exac er
exper tise</w>
présid enti
scho ols</w>
On ce</w>
a ther</w>
d enti
ér o</w>
territ oires</w>
inter nes</w>
éch app
com pos
d ites</w>
spéci al</w>
atta que</w>
me at</w>
bri ef</w>
shi ft</w>
Associ ation</w>
harmon i
issu ed</w>
prom ise</w>
reç o
convainc re</w>
ed ings</w>
tis ing</w>
R ob
d less</w>
investig ation</w>
dig ital</w>
rév olution</w>
inscri t</w>
min es</w>
né er
P i
collap se</w>
si gne</w>
Portu gu
h it</w>
Ash ton</w>
possib ly</w>
réalis te</w>
me ant</w>
évo quer</w>
sugges ted</w>
tur ing</w>
Rom s</w>
h n</w>
reconna ît</w>
excep tions</w>
valu able</w>
éco les</w>
follow s</w>
affir mé</w>
sur monter</w>
étudi ants</w>
Min is
autoris ation</w>
suffici ently</w>
V A</w>
h arm
presid ential</w>
sove reign</w>
frag ment
C eux</w>
a fr
arbit r
d il
mobi le</w>
it ely</w>
renforc ée</w>
s pend</w>
Em ployment</w>
di ed</w>
imp ôts</w>
jur is
Serbi e</w>
dé montré</w>
suff ered</w>
B en
fix é</w>
honor able</w>
int ends</w>
nécess ite</w>
Bl air</w>
con soli
Portugu ese</w>
hol m</w>
l ying</w>
Fisher ies</w>
Co operation</w>
S cot
en joy</w>
as ing</w>
care ful</w>
form ulation</w>
pre viously</w>
H ar
necess arily</w>
chim iques</w>
ple ase</w>
propor tionn
deb ating</w>
i des</w>
e ds</w>
parti sans</w>
v ast</w>
ressor t</w>
sovi étique</w>
speci es</w>
Com ité</w>
an i</w>
soci alistes</w>
cl and
int er</w>
marg in
rem bour
S omm
proce edings</w>
trans position</w>
medic ines</w>
o red</w>
s ets</w>
answ ers</w>
I ts</w>
K en
apparti ent</w>
octro i</w>
ou til</w>
pl ant</w>
w in</w>
él u</w>
dé n
fulf il</w>
play ers</w>
immen se</w>
si a</w>
Autric he</w>
ei ght</w>
experienc ed</w>
mass ac
É gyp
ap h
Cer tes</w>
ap s</w>
v ente</w>
vis ory</w>
clari fy</w>
quanti t
bli n</w>
é mission</w>
candid at</w>
wai ting</w>
a j
pré con
st em</w>
be ings</w>
determin e</w>
publi cation</w>
signific ance</w>
vi endra</w>
bil an</w>
bur ants</w>
under taken</w>
cor ps</w>
di ce</w>
reflec ts</w>
streng th</w>
absolu te</w>
co decision</w>
con tra
ess ence</w>
an g</w>
highli ghted</w>
intellectu al</w>
ti n</w>
m ac
modè les</w>
rem ment</w>
der ing</w>
pay ers</w>
ser re</w>
Hong rie</w>
conduc ted</w>
pro v
some one</w>
ag ement</w>
contribu ables</w>
institu tionnelle</w>
w in
è le</w>
Fundament al</w>
emb argo</w>
illég ale</w>
simul tan
sinc èrement</w>
é mis
in ze</w>
bénéfic ient</w>
anci enne</w>
T A</w>
ex ce
ferrovi aire</w>
sou s
D ar
limit ée</w>
ressortiss ants</w>
dem ic</w>
ex u
pa roles</w>
appro xim
somm e</w>
vi vement</w>
chang é</w>
B on
Protoco l</w>
candid ates</w>
professionn els</w>
in adequate</w>
E M
Mer kel</w>
Mos co
l ad
problé matique</w>
C ar</w>
Du blin</w>
prom ised</w>
esp èces</w>
is ons</w>
attemp ts</w>
T w
n ul
ex hau
S on</w>
bri efly</w>
mis take</w>
Gro w
aband on</w>
entam er</w>
u sion</w>
org e</w>
dee ply</w>
in ely</w>
proce ed</w>
Grow th</w>
destin é</w>
difficul ty</w>
in equality</w>
in vo
asi de</w>
dynam ic</w>
lo sses</w>
remplac er</w>
condem n</w>
mor di
sou h
dem i</w>
pri mordi
w age</w>
éc ar
considér ons</w>
en due</w>
donn ée</w>
ess ed</w>
sav ent</w>
sou ght</w>
regar ded</w>
ti met
Con sumer</w>
genu inely</w>
wid ely</w>
com porte</w>
ig ne</w>
ap art</w>
suscepti ble</w>
de ficits</w>
permettr ont</w>
proven ant</w>
urg ency</w>
Pol ish</w>
maint ained</w>
vic toire</w>
ci t</w>
ma le</w>
hou se
du quel</w>
perfec tly</w>
clai rs</w>
cont ain</w>
m uni
ry th
sti pul
inst ar</w>
mondi ales</w>
natu rel</w>
rele ase</w>
sub mit</w>
sup posed</w>
é si
il li
Au th
g ains</w>
is tique</w>
tr end</w>
l ist
S eu
T ai
expli que</w>
stimul er</w>
Bre x
ag nes</w>
h auteur</w>
ordin ary</w>
ous ing</w>
équilib ré</w>
negoti ation</w>
satis fied</w>
w ine</w>
fonc tions</w>
ci bl
d on</w>
m è
tion ary</w>
y le</w>
con str
e fully</w>
journ alistes</w>
négoci er</w>
identi fied</w>
broad er</w>
lin ks</w>
mi x
rec ettes</w>
Tib et</w>
e astern</w>
entrepren eurs</w>
répét er</w>
ag i</w>
c er</w>
s ité</w>
stu dents</w>
équilib rée</w>
fac ilities</w>
p ho
réc ent</w>
c ens
oppos ite</w>
ac ies</w>
ag res
futu rs</w>
int emp
success fully</w>
Asi an</w>
great ly</w>
v ill
ent h</w>
profon de</w>
w er</w>
ins ist
stric tes</w>
Sol ana</w>
elector al</w>
le çons</w>
protec tionn
reli able</w>
res ti
expéri ences</w>
heal th
f ais</w>
br an
d ons</w>
il lir</w>
contr ast</w>
heav y</w>
wi des
k es
wides pread</w>
att ent
behavi our</w>
le aving</w>
prison ers</w>
rec ti
ob serve</w>
rest ore</w>
sid ence</w>
tr il
control led</w>
coop érer</w>
de sign
hop es</w>
mic ro
t ability</w>
accor de</w>
n és</w>
salu er</w>
no ti
sou lè
chiff re</w>
compl et</w>
observ er</w>
si ves</w>
verb al</w>
Part nership</w>
campai gn
ré ductions</w>
T VA</w>
V AT</w>
op ened</w>
f lows</w>
sev ere</w>
sup érieur</w>
om ali
comp ul
Sch ul
ar isation</w>
ig ner</w>
poli cy
T ch
appropri ées</w>
conna issons</w>
impli cation</w>
complic ated</w>
e av
s lo
st or
él us</w>
essenti ally</w>
pay ing</w>
reti rer</w>
réc entes</w>
fe deral</w>
indi quer</w>
mid dle</w>
réguli èrement</w>
st ake</w>
uni fication</w>
exig ence</w>
manifest ations</w>
ni ght</w>
reflec ted</w>
évi d
conc essions</w>
a ks</w>
cour ts</w>
pesti cides</w>
ré chauff
re trait</w>
élec tri
amen er</w>
k y</w>
tel evision</w>
de liber
g rés</w>
gro w</w>
B us
Inter governmental</w>
NG L</w>
d or
expri me</w>
sor y</w>
H us
g ar</w>
X X
abord é</w>
age ons</w>
He ads</w>
mon étaires</w>
télév ision</w>
élector ale</w>
Schul z</w>
o ted</w>
deven ue</w>
constitu te</w>
Stock holm</w>
as i</w>
au d
ré els</w>
see ks</w>
un certainty</w>
where as</w>
cher cher</w>
cho sen</w>
contribu ted</w>
Cl int
enh ouse</w>
in struc
par am
point ment</w>
Aus trali
accor dée</w>
con forme</w>
neighbour s</w>
Mexic o</w>
suffis ante</w>
Saf ety</w>
comp on
enab ling</w>
bo t
j un
mobil isation</w>
no on</w>
prison niers</w>
Joh n</w>
sh e
sm aller</w>
in spi
justi fication</w>
pu issances</w>
D is
cou p
vo itures</w>
Con tro
dispos al</w>
trag edy</w>
Clint on</w>
geo graph
aéri ennes</w>
m ente</w>
trouv ons</w>
end eav
laun ch</w>
p ush</w>
trans mission</w>
ar my</w>
dossi ers</w>
view ed</w>
ju dice</w>
lo ans</w>
ci de</w>
foot ball</w>
remain ing</w>
innov ations</w>
suffis ant</w>
acc ur
dispu te</w>
H aving</w>
consid ers</w>
de als</w>
différ ent</w>
t rem
engag és</w>
tron ique</w>
Ac t</w>
b i</w>
dé ficits</w>
L an
V al
domm ages</w>
J ust</w>
it ec
ac king</w>
indem n
ess els</w>
rec ession</w>
s low</w>
élec tronique</w>
enh ance</w>
shar ing</w>
wh ol
Tun isi
Un der</w>
gre enhouse</w>
Sim il
a po
dea ths</w>
demand ing</w>
har d
trag é
interpre tation</w>
ref us</w>
Conse quently</w>
co ast
j e
rép ète</w>
pa trim
re move</w>
ö m</w>
tax payers</w>
quot a</w>
vér itables</w>
d a</w>
oni ques</w>
regul ated</w>
fail l
intemp s</w>
str öm</w>
v essels</w>
F ri
att en</w>
e o</w>
ob s
opér ateurs</w>
Égyp te</w>
oph ob
prospec t</w>
L ab
privil égi
A l</w>
au rais</w>
considé rée</w>
particip é</w>
Mor oc
Re port</w>
C an</w>
incid ence</w>
nom ination</w>
cô tés</w>
gr ati
list en</w>
y r
adap t</w>
arch itec
atri ce</w>
op hi
fond é</w>
génér ations</w>
S IS</w>
credi ble</w>
p us
satis faire</w>
u ph
wat ers</w>
ét ais</w>
concre ts</w>
spec tac
conven u</w>
effectu er</w>
entraî ne</w>
re place</w>
Don c</w>
atte inte</w>
hy dro
indic ated</w>
rejet é</w>
satis fais
tr ouver
usu al</w>
Sar ko
di z
gh ly</w>
lim ité</w>
onn el</w>
V ene
analy ses</w>
conna issent</w>
forê ts</w>
ap prendre</w>
bri èvement</w>
rapport eure</w>
éc ologique</w>
aspir ations</w>
av ère</w>
identi fication</w>
continu era</w>
er res</w>
politi quement</w>
pré voy
rejet er</w>
Jus qu</w>
h ousing</w>
ne y</w>
Sarko zy</w>
gu ère</w>
compet ent</w>
destin ation</w>
frag ile</w>
ouver ts</w>
é clai
C entre</w>
acc el
refer ring</w>
amend ing</w>
publi é</w>
to tal
C auc
exclu sivement</w>
protec tion
ri gou
to xi
trag ic</w>
y ed</w>
W ill</w>
alis ées</w>
as sou
répon du</w>
su rely</w>
aut or
rég ulation</w>
av ance</w>
cul tiv
employ és</w>
s aisir</w>
comb ined</w>
enn ess</w>
concr ète</w>
mi di</w>
présent ation</w>
affec ts</w>
bureaucrati e</w>
cl asse</w>
poin ting</w>
so yons</w>
undermin e</w>
al a</w>
beli ef</w>
s low
secré taire</w>
en v
indépend ante</w>
éc us</w>
targ eted</w>
Brex it</w>
min orité</w>
r ê
extr émis
amend ed</w>
encourag ed</w>
œu v
pour suiv
catég orie</w>
dé rog
ic k</w>
mil k</w>
st ed</w>
O ver</w>
li m</w>
organ e</w>
prom ises</w>
ri ez</w>
rés istance</w>
bal ances</w>
adop tés</w>
destin ée</w>
dé posés</w>
Lond on</w>
identi fier</w>
restructur ation</w>
équip e</w>
te ach
prepar ation</w>
Fr on
Hus sein</w>
es cal
is hing</w>
re jet</w>
ym pi
dé triment</w>
exten sive</w>
al leg
te en</w>
complet ed</w>
E tat</w>
comm ence</w>
pe l</w>
diff usion</w>
ent ement</w>
n ar
D C</w>
appel é</w>
loo ked</w>
éri e</w>
al ar
stoc k
souff r
représent ation</w>
tion ally</w>
utilis ée</w>
P aci
compul sory</w>
f il</w>
Inv est
administr ations</w>
posi tives</w>
Bos nie</w>
accomp lir</w>
compr en
op enness</w>
phenomen on</w>
vol ati
ad mi
ad vice</w>
médi ateur</w>
te in</w>
w on</w>
Con grès</w>
arm ement</w>
net tement</w>
simil aires</w>
Fis ch
b onds</w>
iss ants</w>
persu ad
âg ées</w>
ad mettre</w>
gouvernement ales</w>
re form
reser v
In ternal</w>
th i
fix és</w>
Gre at</w>
con i</w>
govern ing</w>
prom esses</w>
att én
thè se</w>
top ic</w>
Bro k</w>
Ex ternal</w>
Par liam
charg é</w>
cl ean</w>
contribu era</w>
Regi onal</w>
honn eur</w>
in du
oblig ed</w>
pa tri
commun iste</w>
opportu n</w>
réchauff ement</w>
strugg le</w>
N or</w>
Vene zu
présent ent</w>
than king</w>
we red</w>
b s</w>
Ira q
Mus lim</w>
exemp tion</w>
in ing</w>
sum mer</w>
Demo cratic</w>
financ ed</w>
y cle</w>
corpor ate</w>
mo des</w>
st ak
Contro l</w>
intermédi aire</w>
reques ts</w>
ti endra</w>
concentr ate</w>
ell s</w>
Fin land</w>
c é
cam p</w>
compar able</w>
con g
Gal il
B ir
s aving</w>
dé pass
Gu erre</w>
port ent</w>
mouv ements</w>
pos sibilities</w>
anc er</w>
deser ves</w>
patrim o
Li thu
Vi et
ch an
h ô
sensib les</w>
F our
ar ise</w>
deb ated</w>
télé ph
expen sive</w>
Represent ative</w>
physi cal</w>
prot est
Pre sidents</w>
cir cul
Bos nia</w>
comm is</w>
de pl
omm un
st ay</w>
défini tive</w>
heu gen</w>
Ver heugen</w>
eventu ally</w>
lib res</w>
ment ally</w>
appu yer</w>
m oun
neighbour ing</w>
st agn
transi tional</w>
we ight</w>
Gre ens</w>
connec ted</w>
depend ence</w>
sec tion</w>
P atten</w>
N et
accompl is</w>
com it
ex tern
observ ateurs</w>
bu y</w>
car rying</w>
exist ant</w>
succe eded</w>
cu se</w>
remarqu able</w>
less ons</w>
es te</w>
fourn iss
recher ches</w>
Auth ority</w>
Sau di</w>
ré di
ch airman</w>
econom ically</w>
justi fier</w>
pro of</w>
l eng
lim itation</w>
su m</w>
légi time</w>
Mol do
ap parten
contr airement</w>
l ay</w>
rem édi
sett lement</w>
ess or</w>
negoti ated</w>
cré e</w>
fore most</w>
F ol
chaî ne</w>
effectu é</w>
guarante eing</w>
ign ent</w>
schem es</w>
op ération</w>
ent ail</w>
mo teur</w>
rati fied</w>
symbo li
chapit re</w>
décl arer</w>
mean ing</w>
mo reover</w>
priv ées</w>
re action</w>
reg ist
élimin ation</w>
ul ar</w>
Tou tes</w>
achiev ement</w>
civil isation</w>
in i</w>
ul aire</w>
Glob al</w>
on y</w>
attén u
en regist
su gar</w>
Ch il
rec ourir</w>
at edly</w>
en ni
reven ue</w>
trans l
Aff aires</w>
Galil eo</w>
end rons</w>
seu il</w>
o di
Fisch ler</w>
fav ourable</w>
fe ed</w>
ho sp
mark eting</w>
renforc é</w>
ad hé
hon our</w>
o tes</w>
qu asi</w>
k illed</w>
sh r
r ent
omb re</w>
accum ul
coû t
lac unes</w>
Belgi um</w>
chec k</w>
il ing</w>
jeu nesse</w>
ouver tes</w>
Bar ack</w>
appli quées</w>
consist ant</w>
ad mis
har dly</w>
rus ses</w>
whe reby</w>
J ean</w>
clari fication</w>
patrimo ine</w>
qua tri
s w
D G</w>
clar té</w>
th èmes</w>
um s</w>
dé tour
t ance</w>
Comm on</w>
ex cus
gh t
scand al
mér itent</w>
tr ack</w>
Comp te</w>
en thou
journ alists</w>
mess ages</w>
spe ech
tro ops</w>
respec tent</w>
afric ains</w>
f aus
reser ves</w>
P endant</w>
arriv ée</w>
ent ered</w>
ré pression</w>
adver tising</w>
col oni
contribu ent</w>
en larg
ey e</w>
l ever
correc tly</w>
fair ly</w>
fall s</w>
portu g
ré d
al liés</w>
confir mer</w>
r at
P N
affai bli
entraî ner</w>
lic enci
r it
slo v
de ep
sol ely</w>
ar gue</w>
elimin ate</w>
mo bili
San ter</w>
tent é</w>
è ce</w>
proch es</w>
w ages</w>
G i
man qu
réc ents</w>
Ge orge</w>
au l</w>
h ouse</w>
technolo giques</w>
pl at
appl au
in spir
E P
dra w
end et
entrepr endre</w>
f ounded</w>
W at
hear ing</w>
pu rement</w>
z z
assemb lée</w>
de p
indic ation</w>
mar que</w>
speech es</w>
B ol
contra intes</w>
demand ent</w>
explo iter</w>
harm ful</w>
is és</w>
sus pension</w>
ter res</w>
ci proc
effond rement</w>
g ame</w>
ow ing</w>
pu tation</w>
dio visu
eu ille</w>
cor respond</w>
sim ples</w>
siè ge</w>
ach at</w>
mar ine</w>
soulev é</w>
terroris ts</w>
ó n</w>
Belgi an</w>
exacer b
un di</w>
off er
ri gi
trou pes</w>
bureau cracy</w>
Con serv
pro lif
ber g</w>
handicap ées</w>
a issent</w>
a justement</w>
graphi ques</w>
particuli ers</w>
tempor aire</w>
wor rying</w>
è lement</w>
Leban on</w>
l asting</w>
mor ts</w>
Tai wan</w>
cro issant</w>
er o
occup e</w>
pri or</w>
Con gress</w>
précé demment</w>
Fin lande</w>
camp agnes</w>
consequ ence</w>
consider ations</w>
im port</w>
com pu
consider ably</w>
nécess airement</w>
sugges ts</w>
bénéfici aires</w>
i ding</w>
wor thy</w>
Is lam</w>
U nivers
inter dire</w>
sh ape</w>
trans former</w>
g ent</w>
li fer
m asse</w>
ra se</w>
Be fore</w>
accep te</w>
c ensure</w>
judici aires</w>
ph ériques</w>
ext ending</w>
fe eling</w>
rec all</w>
end ors
enj oy
gener ations</w>
occurr ence</w>
ati v
indé pendant</w>
iv ing</w>
Ci vi
B ö
ex cuse</w>
ex pul
s ais
su i
Barcel ona</w>
fac es</w>
negoti ate</w>
o re
tim ate</w>
An n
C ulture</w>
ac he</w>
caractéris tiques</w>
fe wer</w>
isl and</w>
iter a</w>
lib ération</w>
viend rait</w>
tribun al</w>
progr am</w>
amb ass
combus ti
initi ale</w>
mo tifs</w>
sexu elle</w>
ter ont</w>
u res</w>
G ol
discu té</w>
doub ts</w>
her itage</w>
re voir</w>
val oir</w>
W all
de red</w>
dictat or
meu r
timet able</w>
The ir</w>
civili an</w>
comm od
fin ale</w>
fortun ate</w>
ur s
affec ting</w>
app eler</w>
dur abilité</w>
m em
Dé pu
ak ia</w>
cre ates</w>
cruci ale</w>
igno rer</w>
instau ration</w>
Gr âce</w>
nom in
occup er</w>
ren contre</w>
su itable</w>
desi rable</w>
Barcel one</w>
Bel gique</w>
consid èrent</w>
constat é</w>
sou th</w>
F er
Simil arly</w>
sur plus</w>
t elec
back ground</w>
c ité</w>
n am</w>
pu ts</w>
Qu i</w>
min ent</w>
Ch aque</w>
Mad rid</w>
complex es</w>
consac ré</w>
os exu
cont rer</w>
islam ique</w>
Sa har
conse ill
der ly</w>
fun ded</w>
Liby a</w>
engag ée</w>
fer ont</w>
formul ées</w>
C hi
bio diversité</w>
i or</w>
mod els</w>
pu rely</w>
acc éder</w>
car te</w>
caus ing</w>
exp and
rempli r</w>
souh ait</w>
pr oud</w>
développ ements</w>
explan ation</w>
ID S</w>
vic tory</w>
OR K</w>
Y ORK</w>
dé bu
ex cl
considér ations</w>
for tes</w>
n an
Ch ech
rav i</w>
t ait</w>
ç a</w>
Fe deral</w>
dri ve</w>
ryth me</w>
ass ist</w>
législ ations</w>
sor ry</w>
zer o</w>
in cont
poss ède</w>
repe atedly</w>
D oes</w>
all ing</w>
dri ven</w>
P C
ab led</w>
horiz ont
nég atif</w>
sau ver</w>
p al
wit n
Tim or</w>
décen nie</w>
divi ded</w>
en rich
remédi er</w>
Atlanti c</w>
E ver
péti tions</w>
é man
élev ées</w>
cho ices</w>
fa ith</w>
milli ard</w>
respec ts</w>
sp ite</w>
emb ry
remo ved</w>
so ft</w>
ven us</w>
H O</w>
accel er
environnement al</w>
accep tables</w>
al ed</w>
cr acies</w>
fi le</w>
quel qu</w>
st ressed</w>
Y es</w>
educ ational</w>
inclu sive</w>
st ance</w>
em ark</w>
progres sivement</w>
ris quent</w>
v enti
U E
ei j
fi es</w>
th res
vers er</w>
For um</w>
an der</w>
b ound</w>
i rak
plac ing</w>
tw enty</w>
volon taire</w>
au diovisu
direc teur</w>
proch ains</w>
tan gible</w>
ani zation</w>
appr entiss
show ing</w>
i on</w>
pr intemps</w>
pron oncer</w>
sû re</w>
unanim ously</w>
accro issement</w>
aut eurs</w>
ba iss
pén ale</w>
rédig é</w>
suppli es</w>
transatlanti c</w>
hon est</w>
musul mans</w>
per e</w>
appar ent</w>
cel e
es c
D anish</w>
aug mente</w>
recogni ze</w>
sur r
y outh</w>
Soci alists</w>
Tam pere</w>
rest re
occur red</w>
premi èrement</w>
u tes</w>
bio diversity</w>
uni form</w>
Ever y
sc én
ass er</w>
dur ables</w>
re vi
A IDS</w>
Austri an</w>
absolu e</w>
espagno le</w>
in utile</w>
produ isent</w>
t ens</w>
heu reuse</w>
rappel é</w>
gr ade</w>
industri els</w>
ch ent</w>
i ze</w>
modi fied</w>
pi ece</w>
ri ed</w>
ter ait</w>
éc art</w>
cr ains</w>
jou ent</w>
mati c</w>
s tic
tex ts</w>
ve ille</w>
ach eter</w>
aff ord</w>
after noon</w>
dro gues</w>
head ing</w>
reg imes</w>
usu ally</w>
Li ke</w>
nation als</w>
prom is</w>
rétab lir</w>
sph ère</w>
geograph ical</w>
mi grat
d den</w>
vo ies</w>
M M</w>
a quie</w>
cer a</w>
ten ons</w>
hi li
ev oir</w>
r are</w>
y ers</w>
ap pris</w>
cu re</w>
enni um</w>
imp ati
lev ée</w>
tu red</w>
Wh ere</w>
conse ils</w>
d ess
inst ances</w>
ma p</w>
su me</w>
alis ing</w>
l ang
resul ted</w>
Slo ven
plu ri
présent és</w>
si onn
apprentiss age</w>
autonom ie</w>
citiz en
ici p
impli quer</w>
contro vers
laiss é</w>
regar dless</w>
rul ing</w>
do or</w>
é tions</w>
a o
dange reuses</w>
environ mentally</w>
f res
import antly</w>
m ée</w>
pati ent</w>
pr enne</w>
dé rale</w>
interven e</w>
n one</w>
num érique</w>
perman ente</w>
su n
app a
intellectu elle</w>
rev olution</w>
rich esse</w>
Somm et</w>
discu tons</w>
dé montre</w>
ag u
enn eté</w>
péri odes</w>
tent atives</w>
agg res
am ing</w>
cele br
col on
defin itely</w>
estim ated</w>
exi que</w>
o par
souti ennent</w>
dis cre
evid ent</w>
manufactu rers</w>
te x</w>
Li ban</w>
adéqu at</w>
débatt ons</w>
prolif ération</w>
viv ant</w>
defin i
health care</w>
ins is
safe guar
Bur ma</w>
Liber al</w>
devi ennent</w>
direc ts</w>
ro ads</w>
al lies</w>
pouv ant</w>
en ver
exclu sive</w>
lég ale</w>
én aire</w>
expres s
remerci ements</w>
diminu er</w>
simil aire</w>
b lement</w>
dé pens
engag é</w>
t oni
H ome</w>
M exique</w>
constitu tes</w>
P ap
inter institutional</w>
preser ve</w>
represent ation</w>
e don
sy ner
éth ique</w>
ab road</w>
ey es</w>
qu inze</w>
Mar tin</w>
au tric
autric hi
ew ise</w>
f ou
import ation</w>
réglement aire</w>
te am</w>
hom osexu
pr endra</w>
appli quent</w>
cher che</w>
pour centage</w>
un necessary</w>
Fre e</w>
li re</w>
Lond res</w>
a ro
reser ve</w>
utilis ent</w>
Le ft</w>
cl arity</w>
cra ft</w>
ex pense</w>
found ations</w>
str ai
dep th</w>
p act</w>
ter ai</w>
ve y</w>
Invest ment</w>
Moldo va</w>
accord é</w>
act eur</w>
poli ci
véri fier</w>
N on
am i</w>
engag ed</w>
précéd ente</w>
épar gne</w>
étudi er</w>
Ci tiz
c ard</w>
restric ted</w>
mun icip
objec tions</w>
ong side</w>
report ed</w>
su pr
Mac edon
buil dings</w>
pr ouve</w>
tre aties</w>
S oli
en sive</w>
Ob jec
batt le</w>
mic ycle</w>
ain dre</w>
bl ame</w>
st at</w>
R ev
enc e
gr o</w>
par aly
imp asse</w>
pré texte</w>
Den mark</w>
P al
im per
v ali
De f
ob ser
A fin</w>
Ir anian</w>
compani ed</w>
inspec tion</w>
lifer ation</w>
manufac turing</w>
per centage</w>
applic ables</w>
indic ateurs</w>
navig ation</w>
rejo indre</w>
ac companied</w>
eth ical</w>
empê che</w>
z es</w>
é rées</w>
const amment</w>
incid ents</w>
scru tin
bureau cratic</w>
fau te</w>
satis fait</w>
ç on</w>
emphas ised</w>
encourag ement</w>
mo tions</w>
quali fiée</w>
shar es</w>
Par mi</w>
appe ared</w>
évén ement</w>
B SE</w>
is ées</w>
souha itable</w>
A re</w>
ch ain</w>
deser ve</w>
in certitude</w>
inter rom
Fol lowing</w>
b us</w>
char bon</w>
dev ast
je opar
off ering</w>
ret ain</w>
territori ale</w>
è dent</w>
A D
refus er</w>
inspec tions</w>
libér al</w>
appli quée</w>
Au g
coun t</w>
demo graphic</w>
sa ke</w>
su édo
ve to</w>
C at
Venezu ela</w>
citizen ship</w>
privatis ation</w>
Bal tique</w>
justi fy</w>
op poser</w>
plani fication</w>
Le h
is tics</w>
quo te</w>
Soli d
bre f</w>
satell ite</w>
war ning</w>
fall ing</w>
in capable</w>
Civi l</w>
Rap port</w>
compet ences</w>
deter i
ang le</w>
a sure</w>
catég ories</w>
rup t</w>
tr ans</w>
w om
C le
quatri ème</w>
extraordin ary</w>
employ ers</w>
garantiss ant</w>
part ager</w>
E D
ref ers</w>
Gu ant
cir cons
four ni</w>
l ait</w>
offici elle</w>
sol d
citoy enneté</w>
glob alization</w>
Parliam entary</w>
all ant</w>
comm it</w>
st yle</w>
tragé die</w>
indispens ables</w>
Fron tex</w>
Viet nam</w>
hé micycle</w>
ex posé</w>
t ente</w>
v on</w>
élo ign
aff ich
di rais</w>
oppos és</w>
p tions</w>
proc essing</w>
Dan emark</w>
f loo
gu re</w>
res ource</w>
S peci
ali ze</w>
versi ties</w>
confir mé</w>
jeu ne</w>
N ic
gran ting</w>
ins cr
accue ill
mul ti</w>
itali en</w>
mic ro</w>
palestini enne</w>
b on
in ond
manifest ement</w>
policy makers</w>
crimin els</w>
â ts</w>
diz aines</w>
loc ation</w>
organ ise</w>
tu s</w>
b arb
dou tes</w>
loo ks</w>
op t</w>
qu o</w>
Slov akia</w>
Th urs
lib rement</w>
concep ts</w>
j ette</w>
regul ate</w>
res istance</w>
élabor é</w>
ag h
précéd ents</w>
tri c</w>
uni ons</w>
ar rest</w>
chino ise</w>
fisc alité</w>
impos ent</w>
Ser vice</w>
enh anced</w>
indic ators</w>
nor thern</w>
donn ent</w>
impli qués</w>
un employed</w>
an ese</w>
stri ke</w>
immédi ate</w>
P lu
ass et</w>
dram atic</w>
dér ation</w>
mo dé
oubli ons</w>
Aut orité</w>
Tw o</w>
beg un</w>
extraordin aire</w>
lo sing</w>
au dit</w>
co al</w>
dég âts</w>
li ère</w>
an xi
clari fier</w>
endu ms</w>
gu erres</w>
v end
Y ou
inter institutionnel</w>
kin ds</w>
occu r</w>
Con tr
every body</w>
décl are</w>
passeng er</w>
sal aire</w>
i gh
inform al</w>
neu f</w>
déf ens
gradu ally</w>
in sufficient</w>
ro ots</w>
st an</w>
st ory</w>
cu tting</w>
Thurs day</w>
pen cher</w>
wom an</w>
è tres</w>
terroris te</w>
R ural</w>
mo vements</w>
protoco l</w>
fab ri
lis h</w>
mil l
tribun aux</w>
cou ple</w>
examin ed</w>
re trouver</w>
repr is</w>
Commun ist</w>
mac ro</w>
souff rent</w>
économ istes</w>
P hili
S ing
cha os</w>
exclu ded</w>
qu ons</w>
speak er</w>
appli qué</w>
e ons</w>
f assent</w>
impos ées</w>
maj eurs</w>
sû reté</w>
ti l
culturel les</w>
do g
déf end
inté gré</w>
et t
g as
j an</w>
éco le</w>
g am
y iel
emerg ed</w>
sou mise</w>
u l</w>
v in</w>
W al
al le
approfon die</w>
D im
occident ale</w>
Ma ro
deman der
en thu
forc ing</w>
inv itation</w>
tionn aires</w>
Euro stat</w>
imp ôt</w>
seu les</w>
É co
confron tée</w>
è tent</w>
B as
enqu êtes</w>
exprim ées</w>
Plu sieurs</w>
fisc aux</w>
bre ak
espagno l</w>
s ch</w>
s wi
vie ill
aband onner</w>
défin i</w>
fall ait</w>
repe ated</w>
Jap anese</w>
jo int
peri ods</w>
souten ue</w>
mer ci</w>
scienti sts</w>
under lying</w>
Non etheless</w>
expl ained</w>
g ab
re vised</w>
app ell
g a</w>
pl ays</w>
ti gh
c asi
mo ved</w>
pres enting</w>
C re
Hel sin
c ach
ir landaise</w>
ph rase</w>
thor ough</w>
Helsin ki</w>
Indon e
afr aid</w>
wh el
F u
Min utes</w>
ain ement</w>
ten sion</w>
télé communications</w>
éventu elle</w>
ch ann
en ly</w>
pass ant</w>
salari és</w>
dis abled</w>
indic ate</w>
inst amment</w>
st ation</w>
S ak
brev ets</w>
ou l
sû rs</w>
wel comes</w>
Slov aquie</w>
Sub ject</w>
as m
con fin
entraî né</w>
j ap
si fs</w>
univers ités</w>
Mon ti</w>
restric tive</w>
show ed</w>
simpli fier</w>
Ac c
K h
O GM</w>
ann once</w>
fres h</w>
reconna issant</w>
béné fice</w>
surpris ed</w>
th ro
ut most</w>
immi grés</w>
présent ées</w>
Qu oi</w>
assur ances</w>
consoli der</w>
or ous</w>
exhau sti
f ears</w>
Jo int</w>
aéro ports</w>
catastrop hi
considér ant</w>
ev ic</w>
M ilos
bor n</w>
dev aient</w>
ple asure</w>
rac isme</w>
sub jects</w>
équip ements</w>
bel ong
es tre</w>
imp ul
m its</w>
adhé rer</w>
oppos é</w>
élar gie</w>
î les</w>
convainc ue</w>
pursu ed</w>
accus ations</w>
am s</w>
el ine</w>
loc ale</w>
pic ture</w>
s col
émerg ents</w>
compr ennent</w>
devi enne</w>
déc lin</w>
fo rec
inv iter</w>
threat ened</w>
utilis ateurs</w>
over whel
pai r</w>
su ici
supr an
Cam bo
Citiz ens</w>
air lines</w>
commerci alisation</w>
conserv ateurs</w>
warm ing</w>
es h</w>
fau lt</w>
s ales</w>
é cl
E qu
esti ment</w>
excep tional</w>
form ule</w>
ren force</w>
sugg ère</w>
a trices</w>
ail ing</w>
bas é</w>
z i
AC H</w>
K im</w>
r ares</w>
secu tion</w>
transpar ente</w>
inst abilité</w>
obser vers</w>
quel conque</w>
Iraq i</w>
ay ed</w>
bor d</w>
tur ns</w>
w ars</w>
be aring</w>
coord onner</w>
M ich
T our
Ukr ain
a qu
chec ks</w>
consul t
garanti t</w>
iss on</w>
utilis ant</w>
Milos evic</w>
d eur</w>
dio x
reserv ations</w>
culturel s</w>
démocrati es</w>
pres sing</w>
Moroc co</w>
dro p</w>
est y</w>
rend ent</w>
t ten</w>
cess er</w>
di a</w>
fre ely</w>
viol ences</w>
as ser
f aux</w>
pat ent</w>
com ings</w>
humanit aires</w>
imag iner</w>
octro y
Re gar
au st
cap e</w>
consac rer</w>
ti er</w>
éri r</w>
Tra ités</w>
bilatér aux</w>
doc um
f it</w>
inv it
m ir</w>
rec ue
us al
ab stain
al it
expli cation</w>
jo ined</w>
Qu elle</w>
compe te</w>
dr as
incid ent</w>
spécifi quement</w>
usal em</w>
with draw
chal eureusement</w>
clai med</w>
im parti
ju ge</w>
n era</w>
construc tif</w>
neigh b
Ber l
di visions</w>
har m</w>
pén al</w>
Dé mo
benefici al</w>
reiter ate</w>
restric tion</w>
w o
Budg etary</w>
Lab our</w>
ber cul
chem ical</w>
nég atifs</w>
re sum
représent er</w>
with draw</w>
é dois</w>
ad mit</w>
draf ting</w>
fre quently</w>
gener ate</w>
ma îtr
di r</w>
ro v</w>
territ ories</w>
contr act</w>
tack ling</w>
tin a</w>
M ay
S un
cad res</w>
for man
rop s</w>
short comings</w>
Fre e
barri ères</w>
eth niques</w>
in capacité</w>
ES B</w>
a h</w>
répon d</w>
uni ver
Ar c
acti ves</w>
auth or</w>
prof ession</w>
prév us</w>
voy ons</w>
J ac
fo rest</w>
mes se</w>
per mit</w>
ra w</w>
signi fi
élarg ir</w>
D A</w>
al li
joint ly</w>
new sp
Eng lish</w>
collec te</w>
obt ained</w>
pron onc
syndic ats</w>
z en</w>
ori que</w>
post pon
Maro c</w>
direc ted</w>
gi r
multi ples</w>
program s</w>
d ol
fer ait</w>
jeu di</w>
ex act</w>
human ity</w>
expres sing</w>
mor ale</w>
séri euse</w>
tak ings</w>
I T</w>
er adic
uni versities</w>
util ise</w>
éc uti
bi om
n ement</w>
p è
re ront</w>
c ouvrir</w>
indic ations</w>
minim ales</w>
val id
compl aints</w>
st ages</w>
bure au</w>
eth nique</w>
fores e
incorpor ated</w>
Mac édo
alco ho
ref used</w>
w arr
An g
Macédo ine</w>
compréhen sible</w>
gén é
lear ned</w>
Ass ad</w>
Ti me</w>
U nies</w>
dé grad
pren ons</w>
rein force</w>
enthu sias
Gen eva</w>
arab es</w>
cra intes</w>
déc ès</w>
m ere</w>
ra ises</w>
v ices</w>
cham pi
it ably</w>
out standing</w>
prev ented</w>
cli ents</w>
correc te</w>
démo graphique</w>
or i</w>
per forman
ét ch
P os
ar ch</w>
ul f</w>
ur a</w>
é duc
att ends</w>
de fe
rece iving</w>
stimul us</w>
Gen ève</w>
appel ons</w>
bâti ments</w>
S w
Su dan</w>
envoy é</w>
fé dérale</w>
not ably</w>
onn ées</w>
présent ant</w>
st one</w>
stak e
Liby e</w>
at ro
fail ing</w>
ral entiss
avi d</w>
off rent</w>
det tes</w>
fi able</w>
imag in
No bel</w>
cat ch</w>
experienc ing</w>
mo des
rel è
vo ilà</w>
consis ten
man dat
Be aucoup</w>
annu elle</w>
spéc ul
suiv ants</w>
confron tation</w>
famili ar</w>
inv asion</w>
per ception</w>
potenti ally</w>
T S</w>
consci ent</w>
convainc us</w>
e li
manag ing</w>
respec tu
s pon
exper im
lab el</w>
parven u</w>
S m
appro aches</w>
cherch eurs</w>
sou ci</w>
O ui</w>
mod alités</w>
rapproch ement</w>
voud rions</w>
demonstr ates</w>
em ain</w>
ou red</w>
souha ité</w>
systé mati
al ign
ap es</w>
clas ses</w>
condem ned</w>
er ron
p ace</w>
Fl or
Institu te</w>
re placed</w>
to ires</w>
under takings</w>
comb ler</w>
san g</w>
D R</w>
sign s</w>
touch és</w>
dét éri
ét endue</w>
Cle arly</w>
er ie</w>
impli quant</w>
t ain</w>
mén ages</w>
transatlanti que</w>
équilib res</w>
avanc és</w>
refus é</w>
contro versi
génér aux</w>
plan et</w>
refuge e</w>
D avid</w>
inform és</w>
pol onais</w>
recomm ande</w>
s me</w>
trans it
z a</w>
E ducation</w>
Me an
t endre</w>
écou ter</w>
A h
bl ing</w>
sold ats</w>
suppl ementary</w>
élev ée</w>
accoun tability</w>
imp éri
on y
rem pl
I II</w>
M ul
Ob jet</w>
concr ètement</w>
di vis
voy age</w>
F ac
S A
appréci e</w>
log ical</w>
m ar</w>
reço ivent</w>
tend ances</w>
Indus try</w>
M au
cour ag
l ai
coordin ate</w>
enn a</w>
excell ence</w>
Lithu ania</w>
bénéfic ie</w>
des c
pro messe</w>
suédo ise</w>
arri ère</w>
concurr enti
four th</w>
pursu ing</w>
sa ou
S omali
c ouv
diversi fication</w>
i ens</w>
inform é</w>
la di
mani pul
mi tig
sauve garde</w>
sympa th
Tunisi a</w>
fu r</w>
inten se</w>
ret ar
b ly</w>
dé mant
pro vis
un likely</w>
Macedon ia</w>
c inqui
estim é</w>
fi ables</w>
itali enne</w>
perfec t</w>
tor t</w>
wor ding</w>
demand eurs</w>
dis s
suiv antes</w>
under line</w>
volon t
exploit ations</w>
go tten</w>
J ord
aust érité</w>
bel ge</w>
crit ère</w>
histori ques</w>
nourr iture</w>
trait ements</w>
app els</w>
broad c
es ter</w>
développ é</w>
atten tivement</w>
coll aborer</w>
dri vers</w>
C N
J ew
blo c</w>
fermet ure</w>
s pring</w>
sou ci
Yu goslav
h aut
si n</w>
Bir manie</w>
S he</w>
fle et</w>
is sion
pri e</w>
ar c
draf ted</w>
f low</w>
to m</w>
Yugoslav ia</w>
adéqu ates</w>
at ori
ati vement</w>
ch ron
conventi onal</w>
diplomati que</w>
judg ment</w>
physi que</w>
ster ity</w>
S ev
dé favoris
mar ks</w>
personn elle</w>
tot alité</w>
flot te</w>
grati tude</w>
lin ing</w>
Mean while</w>
al ongside</w>
Budg et</w>
démocrati sation</w>
equi valent</w>
every where</w>
s por
procu rement</w>
sub sid
L itu
crédi ble</w>
faill ite</w>
part ageons</w>
ro b
enthou sias
T el</w>
Tour ism</w>
demo cracies</w>
multination ales</w>
rapproch er</w>
withdraw al</w>
Fr at
Frat tini</w>
H is</w>
collec tion</w>
potenti els</w>
provo qué</w>
ul tr
Tou te</w>
di v
D u</w>
i al</w>
ir ont</w>
lanc ement</w>
pers écu
suc re</w>
S P</w>
Ser vices</w>
cons enti
dé loc
mi que</w>
vacc ination</w>
fourn it</w>
g ained</w>
lon gues</w>
mont ants</w>
re ts</w>
sau f</w>
appu y
il ité</w>
re mark
red un
z bol
abor de</w>
e ken</w>
forest s</w>
gu er</w>
K inno
Kinno ck</w>
La eken</w>
dépend ent</w>
tre at</w>
Dec lar
trans mettre</w>
circons cri
def ending</w>
zbol lah</w>
L o
RE ACH</w>
ad mission</w>
T ON</w>
enn em
penal ties</w>
res ear
cr ate</w>
haut ement</w>
prepar ations</w>
préc au
c tion</w>
es sion
M ic
anti bio
dispu tes</w>
f at
under stand
under take</w>
fo i</w>
manifes te</w>
y pri
E very</w>
affron ter</w>
app are
dé ç
sous cri
Aug ust</w>
blo od</w>
f an
rel ate</w>
reli ef</w>
si an</w>
î le</w>
Org anization</w>
dis su
dési r</w>
rac ism</w>
attent ats</w>
l end
pens ée</w>
sou lever</w>
att le</w>
be ef</w>
déploy és</w>
religi eux</w>
dec re
desi gn</w>
disponi ble</w>
ei gh
exper t</w>
ma inst
r am
susp ici
transfrontali ère</w>
ét ats</w>
D eux</w>
Mu gab
co s
moder nes</w>
organi zation</w>
él as</w>
An y</w>
B or
systémati quement</w>
transfrontali ers</w>
M il
Par allèlement</w>
W he
nu it</w>
sur vie</w>
a just
accue illir</w>
pré visions</w>
rejec tion</w>
vou lais</w>
ad vers
encourag eant</w>
h ence</w>
modi fié</w>
par allè
s ong
bien venue</w>
personn elles</w>
z éro</w>
Berl us
Mugab e</w>
impos ing</w>
n esses</w>
out set</w>
rec our
rest era</w>
ré it
su b</w>
th o
un preced
dév ast
incl us</w>
m ad
s ending</w>
I G
O ther</w>
as tr
banc aires</w>
e go
goslav ie</w>
respec té</w>
s ée</w>
Berlus coni</w>
s qu
W ell</w>
You goslavie</w>
co vers</w>
discrimin ations</w>
ret our
ari ats</w>
dev ise</w>
préc ises</w>
ques tion
sin on</w>
cé ré
inter dit</w>
necess ity</w>
prot est</w>
bo v
pass ée</w>
sign ing</w>
virtu ally</w>
b ans</w>
warm ly</w>
Alb ania</w>
mis takes</w>
auth orit
campaign s</w>
dead line</w>
em an
ill us
telec ommun
ail l
correspon d
parad ox
ak is</w>
contribu ting</w>
dis ons</w>
intégr ité</w>
oc casi
pre fer</w>
C ot
accoun ting</w>
stand ar
é prouv
Fran ç
HI V</w>
ho st</w>
is hment</w>
Declar ation</w>
b ét
bloc k</w>
texti les</w>
fai m</w>
is sez</w>
sol di
sur face</w>
H a
air ports</w>
annivers aire</w>
arrang ement</w>
in comes</w>
ti ous</w>
tu bercul
un fortunate</w>
al ing</w>
contam ination</w>
per mette</w>
éti quement</w>
employ eurs</w>
en tion</w>
pro xim
applic ant</w>
pla intes</w>
tim ely</w>
agre es</w>
compéti tive</w>
ani um</w>
head s</w>
ré former</w>
T ech
ao ût</w>
considé rés</w>
géo graphique</w>
im pu
non etheless</w>
promo ted</w>
subse quent</w>
Au x</w>
infr action</w>
pri oritaires</w>
résol u</w>
K rem
bir th</w>
cu p
hor ri
lis tened</w>
ord ed</w>
précéd entes</w>
vit esse</w>
établ issant</w>
A zer
Cert aines</w>
el derly</w>
no tes</w>
remain ed</w>
st a</w>
ve z</w>
An ge
hop ed</w>
sign es</w>
C el
J our
Krem lin</w>
de pri
defin ing</w>
entrepren eu
inqui ète</w>
intellig ent</w>
matéri el</w>
re conciliation</w>
tend ent</w>
b rè
cel lu
condam ner</w>
cr aign
observ ed</w>
pouv aient</w>
s son</w>
tur c</w>
D anu
ec ological</w>
econom ists</w>
fall en</w>
inst ability</w>
re me
fourniss eurs</w>
h our</w>
o ting</w>
Arab ie</w>
ex empl
integr ity</w>
journ ée</w>
mon tée</w>
or ds</w>
san itaires</w>
dem ents</w>
empl o
fa ster</w>
s car
au sterity</w>
der ation</w>
dé tention</w>
incen tive</w>
miss ing</w>
r on</w>
Danu be</w>
G M
ar ising</w>
dr in
effici ently</w>
ic als</w>
législ atifs</w>
sol ved</w>
unpreced ented</w>
F erre
L eur</w>
categ ory</w>
on ia</w>
recomm end</w>
M ari
entrepr is</w>
législ ature</w>
pris ons</w>
religi euses</w>
autoris er</w>
financ ements</w>
ot age</w>
satisfais ante</w>
élec tr
K ey
controversi al</w>
der og
domin ant</w>
fix ed</w>
homm age</w>
less on</w>
vehic le</w>
hel p
ner ships</w>
St re
alle l</w>
eng ine
fer mer</w>
fond ement</w>
qu era</w>
ver i
EM U</w>
n ine</w>
ur anium</w>
de ad</w>
gu ide</w>
individu els</w>
signific atif</w>
ss é</w>
susp ended</w>
O p
att ente</w>
c rops</w>
integr ate</w>
sub jec
h ur
dé riv
réussi r</w>
adop te</w>
diverg ences</w>
E N
E ri
attr active</w>
exclu sively</w>
g enti
gre c</w>
h ec
A S</w>
fri end</w>
plac er</w>
es day</w>
m ène</w>
mom ents</w>
pi p
profon deur</w>
de dic
admis sible</w>
décid eurs</w>
in verse</w>
conver sion</w>
sti c</w>
Arab ia</w>
approxim ately</w>
fr uctu
inti tu
p age</w>
qu alit
Litu anie</w>
Ob viously</w>
Tun isie</w>
ass isté</w>
f at</w>
lic ences</w>
ins isté</w>
pan démie</w>
structurel le</w>
P en
lo cu
program mation</w>
sign er</w>
afric aine</w>
av oc
clo sure</w>
expéri ment
hypo cr
jo ining</w>
ren seign
confir me</w>
hel ps</w>
Ken ya</w>
Mer co
Sou dan</w>
propos ons</w>
ret ards</w>
éventu ellement</w>
lau gh
se as</w>
bor ne</w>
Merco sur</w>
et h</w>
renew ed</w>
Azer b
am end</w>
jug ement</w>
requi ert</w>
u ries</w>
ultr ap
unanim ous</w>
ari ties</w>
concl us</w>
del ays</w>
do ter</w>
examin é</w>
pré judice</w>
t le</w>
tic ul
Sing ap
cland esti
const ante</w>
enab led</w>
gén étiquement</w>
li eux</w>
cr ainte</w>
pré ten
thi op
univer sel</w>
é k
dimen sions</w>
pro liferation</w>
air craft</w>
ju dge</w>
maint es</w>
Y ear</w>
brut al</w>
deuxi èmement</w>
no body</w>
su édois</w>
un g</w>
ar a</w>
mainst re
an o</w>
fem ale</w>
igno red</w>
ralentiss ement</w>
ég al</w>
ast es</w>
bel ong</w>
fin ir</w>
institu tionnelles</w>
ré form
ou er</w>
prohi bi
co vering</w>
concre t</w>
execu tive</w>
post al</w>
associ er</w>
dis e</w>
found ation</w>
nor me</w>
tionn er</w>
highli ghts</w>
in ée</w>
ar t
conform ité</w>
fail s</w>
ass is
atti tudes</w>
destro yed</w>
rencontr é</w>
vi ons</w>
Qu elles</w>
declar ations</w>
ju ger</w>
li ability</w>
oun ce</w>
pan demic</w>
politici ens</w>
thres hold</w>
tol érance</w>
trou bles</w>
fondament alement</w>
par allel</w>
s u</w>
v ues</w>
el d</w>
per d
od a</w>
se emed</w>
soli d</w>
accep tance</w>
anc ell
h s</w>
harmon iser</w>
mi gr
pro ven</w>
cle arer</w>
doc tr
inno c
pon ents</w>
primordi al</w>
sustain ed</w>
anim ale</w>
exig ent</w>
par viend
pro stitu
se arch</w>
sin ce
tri ce</w>
Th rou
en e</w>
inond ations</w>
T ant</w>
n is
parten ariats</w>
reduc tions</w>
rel ancer</w>
achiev ements</w>
radi o</w>
ar ités</w>
sou mises</w>
under taking</w>
Dépu tés</w>
char te</w>
essay é</w>
onn elle</w>
sli ghtly</w>
électr oniques</w>
acqu isi
dictat ure</w>
endro it</w>
inter governmental</w>
loy ale</w>
mobil iser</w>
tribu te</w>
argu ed</w>
c ouvre</w>
justi fie</w>
k ly</w>
ren oncer</w>
ét apes</w>
Thir d</w>
demand ant</w>
di rai</w>
fais ait</w>
figur ent</w>
ol der</w>
tu m
affai bl
annex e</w>
confi dent</w>
enlarg ed</w>
pos sé
tradu it</w>
Ch airman</w>
constr aints</w>
in ary</w>
légi times</w>
os é</w>
immédi at</w>
pi èces</w>
évid ente</w>
al arm
des per
fas hi
r ational</w>
règ ne</w>
cinqui ème</w>
enthousias me</w>
fl agr
regis tre</w>
tal ked</w>
vo i</w>
ang er</w>
fe a
log ement</w>
mari times</w>
back ed</w>
met tons</w>
re a</w>
dépl or
fourn iture</w>
spéci alement</w>
av or
chino ises</w>
rédu ite</w>
util ité</w>
S ingle</w>
continu ation</w>
em ission</w>
travail le</w>
en ko</w>
for gotten</w>
install ation</w>
p ain
rh et
O therwise</w>
g az
min e</w>
telecommun ications</w>
xi ème</w>
Chech n
Solid arity</w>
esp èce</w>
fac to</w>
fix e</w>
stake holders</w>
ou lo
respec ting</w>
Cot on
sel l</w>
He zbollah</w>
au n
provi ders</w>
pu re</w>
ré conciliation</w>
substanti ally</w>
In formation</w>
Mich el</w>
décisi f</w>
em pris
Bol kes
R el
expli qué</w>
f ate</w>
intensi fier</w>
ni ti
particuli ères</w>
sib ility</w>
to x
vic time</w>
Bolkes tein</w>
Chechn ya</w>
Coton ou</w>
Ma inten
Rob ert</w>
Sw ob
Swob oda</w>
associ és</w>
gu il
help ful</w>
nor th</w>
R ien</w>
de au</w>
impér atif</w>
min al</w>
soli des</w>
estim ates</w>
in citer</w>
neg lec
part nerships</w>
Alb anie</w>
inev itable</w>
issu s</w>
requ is
AR E</w>
I niti
Ou est</w>
ambass ad
arriv é</w>
dé mar
fer ons</w>
ho c</w>
in her
prec au
re act</w>
compét entes</w>
dictator ship</w>
méditerran éenne</w>
regul arly</w>
abstain ed</w>
is tiques</w>
respon ses</w>
sex es</w>
C lim
faibl esse</w>
rele ased</w>
é no
autonom y</w>
dés ast
ex posed</w>
L ON
as si
dec l
ex changes</w>
present ation</w>
res p
s ports</w>
am or
défin is</w>
sur veiller</w>
Qu el</w>
S har
gen res</w>
simpli fy</w>
ch ant</w>
prof ess
reflec tion</w>
support er</w>
S en
il lu
p ani
the ory</w>
B lo
L at
alcoho l</w>
ari ans</w>
import ed</w>
nég atives</w>
re porting</w>
sor tie</w>
C anc
conv ince</w>
et us</w>
int éri
actu alité</w>
lac king</w>
per turb
repres enting</w>
am ent</w>
bl ack</w>
thé orie</w>
under p
vi enne</w>
focus ing</w>
gas pill
ru bri
A P
adjust ment</w>
coast al</w>
poursu it</w>
ré vis
so il</w>
t y
al lusion</w>
analy ser</w>
hom es</w>
in side</w>
par tant</w>
M y
transfer ts</w>
E co
et tering</w>
inter rog
rétab l
ven ons</w>
Indi an</w>
consisten cy</w>
gr atu
n ish</w>
Po ettering</w>
econom ics</w>
en shr
reg ister</w>
Bar nier</w>
H on
exp and</w>
func tions</w>
investig ations</w>
pouss er</w>
ultrap éri
ack ed</w>
f euille</w>
grec que</w>
ow nership</w>
coord onnée</w>
plac ement</w>
ren voy
vari ety</w>
étab lit</w>
character istics</w>
fl ation</w>
mé mo
ad h
signal é</w>
stagn ation</w>
support ers</w>
a o</w>
assess ments</w>
en em
indépend amment</w>
re rait</w>
sent ence</w>
decl are</w>
fas c
off ices</w>
re pli
BE I</w>
E IB</w>
R ather</w>
b ing</w>
basi cally</w>
ma y
R w
habitu de</w>
év olutions</w>
Ou tre</w>
believ ed</w>
congratul ating</w>
destro y</w>
ha rov</w>
par allèlement</w>
peti tion</w>
res or
since rely</w>
ast s</w>
décri t</w>
maj eures</w>
sacri fic
ér ant</w>
CO D</w>
ar me</w>
certi fication</w>
dis agree</w>
survi val</w>
Mill ennium</w>
dur al</w>
ep i
nutri tion</w>
rati fié</w>
échou é</w>
architec ture</w>
félicit ations</w>
in car
mé ment</w>
j i
march es</w>
toler ance</w>
volati l
H ol
Li k
bot tom</w>
disap pointed</w>
excep t</w>
fro ide</w>
on line</w>
S in
Sak harov</w>
b adly</w>
co di
experi ences</w>
m ét
vis ited</w>
Kore an</w>
confi denti
emb ar
particip ent</w>
préserv ation</w>
relè vent</w>
stric tly</w>
compar ison</w>
restric t</w>
étab lies</w>
dég ager</w>
in k
professionn elles</w>
M it
inqui ét
surr ounding</w>
tr o</w>
aéri enne</w>
congratul ations</w>
def ense</w>
m aire</w>
philos ophi
XX I
endet tement</w>
pro clam
énor mément</w>
dé montrer</w>
ec o
s aurait</w>
shi f
succ essi
sym p
prof ession
tr ends</w>
v éc
al be
stock age</w>
Clim ate</w>
advoc ate</w>
ap pointed</w>
ass ister</w>
fundament ally</w>
h as
heav ily</w>
annivers ary</w>
néer landais</w>
péri l</w>
system atic</w>
fo ssé</w>
loc k</w>
ét onn
Al so</w>
atte ints</w>
cré ant</w>
enver gure</w>
fi res</w>
le aves</w>
ow ski</w>
prof essions</w>
Démo crates</w>
le çon</w>
na issance</w>
dis astr
rang ing</w>
résul te</w>
Auc un</w>
Ch r
bor ro
che ap</w>
lo gic</w>
mean ing
rati o</w>
ré tic
appa remment</w>
bat aille</w>
i ties</w>
macro economic</w>
Cri minal</w>
Pers onne</w>
annu els</w>
m as</w>
soldi ers</w>
compens er</w>
per mitted</w>
victi m</w>
ég ards</w>
ann ul
b acking</w>
intol er
é mis</w>
Tri bun
chem icals</w>
f arms</w>
po issons</w>
graphi e</w>
inf érieur</w>
quit ter</w>
rap ides</w>
s ach
shor tly</w>
équ itables</w>
albe it</w>
cons ent</w>
contr ac
ex ister</w>
pos ant</w>
ab uses</w>
mu si
s ag
suffis antes</w>
t euse</w>
unil ateral</w>
Mon t
bil lions</w>
em ic</w>
gene tically</w>
grand ement</w>
pi liers</w>
x éno
LON D
M s</w>
P ES
alco ol</w>
cu ri
déc entr
minim al</w>
qu erait</w>
révél é</w>
adequ ately</w>
d ates</w>
inter im</w>
é nie</w>
En tre</w>
Fr anc
Tch étch
UE N</w>
constitu é</w>
débatt u</w>
endu s</w>
s par
stu ffs</w>
systé matique</w>
déb at
détermin ée</w>
equ ity</w>
ide al</w>
protectionn isme</w>
s an</w>
éc ologiques</w>
él or
S il
ancell or</w>
diplom acy</w>
tes ting</w>
compét ente</w>
er ror</w>
f illes</w>
l u</w>
met tra</w>
quar ter</w>
spéci ale</w>
al er
av ie</w>
coher ence</w>
diplomati e</w>
respec tés</w>
un it</w>
éch elon</w>
élev age</w>
any ah
di ons</w>
harmon ised</w>
israéli en</w>
it ems</w>
per ce
s ale</w>
vi abilité</w>
accur ate</w>
donn ant</w>
oblig atoires</w>
ser ais</w>
N i
ch u
ex écuti
mainten ance</w>
ob tenus</w>
ré col
tou gh</w>
Pe ti
T ali
inves ting</w>
ophob ia</w>
Tribun al</w>
deli vered</w>
défin ies</w>
comprom ises</w>
d red</w>
dec ent</w>
initi ally</w>
oc ar
pl ant
sum mar
don ateurs</w>
neighbour hood</w>
scrutin y</w>
émer gence</w>
complément aire</w>
d ul
no by
particip ating</w>
pl ai
ver te</w>
Par ce</w>
Tchétch énie</w>
absur de</w>
acc used</w>
consul ted</w>
dange reuse</w>
noby l</w>
combusti bles</w>
consist ently</w>
ide ological</w>
sign at
sus pen
séri euses</w>
S te
ate aux</w>
fossi l</w>
serv ent</w>
pe tr
ph ob
resol ving</w>
Co hesion</w>
M es</w>
ap pointment</w>
comb ination</w>
inscri re</w>
l iter
sti g
G N
al in
k ur
an en</w>
per petr
préfér able</w>
ra y
re pression</w>
re si
sec tions</w>
er ais</w>
habit ant</w>
privil eg
v es
él an</w>
dam aging</w>
hun dred</w>
im ages</w>
incen dies</w>
scén ario</w>
tionn aire</w>
Mainten ant</w>
direc tes</w>
routi er</w>
se g
P aul</w>
S P
compl éter</w>
kr ain
parl ers</w>
dép asse</w>
u krain
S a</w>
contraign ant</w>
cur ren
d ated</w>
for ts</w>
imp etus</w>
l abor
mer g
n ings</w>
onn aires</w>
rem ise</w>
explicit ement</w>
imper ative</w>
isol ation</w>
disastr ous</w>
fal se</w>
fall u</w>
acknowledg ed</w>
ap er
certi fic
don ors</w>
grav ité</w>
in justice</w>
par cours</w>
see kers</w>
B eij
Beij ing</w>
bann ed</w>
conci lier</w>
jo indre</w>
l it
mom ent
n ô
ne x</w>
op pression</w>
pour parlers</w>
soulè ve</w>
tab le
v entes</w>
Bang lad
Mol d
cro ss
du r</w>
im peri
por no
s log
évalu ations</w>
contr at</w>
gir ls</w>
sid a</w>
tab ly</w>
to s</w>
tradu ire</w>
A z
complex ité</w>
ic ation</w>
ori c</w>
prof itable</w>
sé jour</w>
urg ente</w>
é puis
BE R
K az
affir mation</w>
constat ons</w>
dés accord</w>
no tice</w>
so f
ti tres</w>
CE E</w>
b oy
bru t</w>
concrétis er</w>
p it
po isson</w>
S ome
bi ocar
proportion ate</w>
ré sum
sin cer
ex tradition</w>
fe atures</w>
hand ling</w>
ne z</w>
so in</w>
unanim ity</w>
é mettre</w>
ex hor
horiz on</w>
mar qué</w>
tu e</w>
authoris ation</w>
hy gi
in habitants</w>
nég ative</w>
t wi
im balances</w>
total it
tur que</w>
ajou te</w>
Minis tre</w>
accep ting</w>
o st
objec tion</w>
rail way</w>
endors ed</w>
quali fiés</w>
quantit ative</w>
trou ble</w>
A bo
J un
Joh ann
S an</w>
avo ided</w>
condam nation</w>
di c</w>
exclu re</w>
lic ence</w>
pi res</w>
se x</w>
écou té</w>
ér ons</w>
clandesti ne</w>
exprim ée</w>
j a</w>
ser vir
ti ère</w>
ent ering</w>
inv ent
op tique</w>
pla fond</w>
touch ées</w>
w ake</w>
bénéfici é</w>
s aine</w>
senti r</w>
un like</w>
y our
Stat ute</w>
diver se</w>
s és</w>
vi eux</w>
Aut rement</w>
n ets</w>
p ér
protection ism</w>
scen ario</w>
c es
dis mant
fl uctu
gradu al</w>
lis tes</w>
or ale</w>
préoccup e</w>
resear chers</w>
rémun ération</w>
threat ening</w>
établ issements</w>
cl ass
hun ger</w>
tri b
Scot land</w>
ch oc
cherch ent</w>
int ement</w>
mandat ory</w>
complément aires</w>
dil em
ent ure</w>
inev itably</w>
ori al</w>
rati fy</w>
remark able</w>
ré public
serv ed</w>
tu ne</w>
conn ue</w>
deni ed</w>
ill on</w>
th ous
ad verse</w>
conjo intement</w>
dé marches</w>
AS E
m us
mur der</w>
pas se
subse quently</w>
Indone sia</w>
c ouverture</w>
categ ories</w>
détail lée</w>
f érer</w>
fon dées</w>
your self</w>
curren cies</w>
inf lig
perp étr
re cip
am én
appar ition</w>
communi quer</w>
d ying</w>
enj eux</w>
industri el</w>
interven ants</w>
no ter</w>
p ulation</w>
ric he</w>
ter ror</w>
vou lez</w>
dg ed</w>
favor ablement</w>
ke en</w>
n it
priv acy</w>
bo om</w>
preven tive</w>
G ra
ci ble</w>
démo crate</w>
dés équilibres</w>
hongro ise</w>
mu r</w>
p ain</w>
philos oph
recher cher</w>
ri gueur</w>
ré elles</w>
ési e</w>
M and
co existence</w>
compag nie</w>
glob alement</w>
partag ent</w>
peri ph
s cre
Fin nish</w>
Lors qu</w>
accord ingly</w>
avanc é</w>
mean time</w>
gi quement</w>
lo be</w>
ma ison</w>
ru es</w>
Y our</w>
b ateaux</w>
convic tions</w>
gu ise</w>
pro met
to w
du al</w>
ear ing</w>
missi les</w>
smo o
C ap
emer ge</w>
judici eux</w>
s age</w>
uni forme</w>
P E
out put</w>
ans wered</w>
broad ly</w>
charg ée</w>
f li
souha iter</w>
chap ter</w>
cont enter</w>
contam in
parti san</w>
quanti tés</w>
quar ters</w>
recogni zed</w>
U EM</w>
V ladi
ac ad
civili ans</w>
ep tion</w>
struc k</w>
yn n</w>
Jac ques</w>
extern es</w>
sup érieure</w>
um b
OC DE</w>
T elle</w>
cont aining</w>
ic a</w>
so le</w>
appreci ation</w>
dé tenus</w>
inév itable</w>
stor age</w>
tradi tionnelles</w>
twi ce</w>
viv ons</w>
F é
counter fe
en ables</w>
par viennent</w>
stic k</w>
Ch ancellor</w>
Wat son</w>
dirige ant</w>
estim ations</w>
ev i
organis me</w>
s old</w>
stric te</w>
O EC
dés as
en jeu</w>
ou ter
t rop
N u
conn exi
inv ited</w>
m ers</w>
respec tant</w>
vali d</w>
vi de</w>
OEC D</w>
compar aison</w>
décisi ve</w>
développ ées</w>
offici ellement</w>
prouv er</w>
ré par
thous and</w>
espo irs</w>
ouv ri
re distribution</w>
safeguar ding</w>
ser ai</w>
Peti tions</w>
aci o</w>
distribu ted</w>
ev ol
proce dural</w>
résol us</w>
appar ently</w>
for ment</w>
tradi tionnels</w>
b om
str ing
ti s</w>
w il
électri ques</w>
év entail</w>
ail les</w>
ov ine</w>
so ign
L ou
am ed</w>
are t
assu rément</w>
limit ations</w>
sci ences</w>
Regar ding</w>
Sy stem</w>
b ande</w>
inno cent</w>
provo quer</w>
ro y
ti ères</w>
aéri ens</w>
susc ité</w>
F ace</w>
Mal ta</w>
aqu ac
aver tiss
j onc
ou ts</w>
outer most</w>
Net anyah
Ru i
ck er</w>
compon ent</w>
d d
donn era</w>
inti mid
transf ers</w>
uni e</w>
Qu el
adop tant</w>
cl ô
comment aire</w>
croy ons</w>
e ast</w>
expli cations</w>
fossi les</w>
gé no
out i</w>
p av
N az
With in</w>
av érer</w>
concern é</w>
crimin als</w>
limin ary</w>
au l
f ought</w>
P le
ann onc
arm ées</w>
capit alisme</w>
demeu rent</w>
dev ions</w>
gro wn</w>
libér ale</w>
é rément</w>
biocar burants</w>
fo ot</w>
inter ro
mod est</w>
senti ments</w>
Def ence</w>
el son</w>
religi euse</w>
stimul ate</w>
w ave</w>
épar gn
ko v
pri oritaire</w>
not ation</w>
ultrapéri phériques</w>
all ait</w>
exprim és</w>
fabric ation</w>
gi bles</w>
minist ère</w>
quotidi enne</w>
réjou ir</w>
rév èle</w>
w estern</w>
trans européens</w>
Qu atri
dis ait</w>
is h
prof ound</w>
prov ince</w>
sus cit
Atlanti que</w>
Fi f
consequ ently</w>
dispar ition</w>
e fs</w>
off ensive</w>
réglement er</w>
s cr
voy ag
Banglad esh</w>
W ol
oblig e</w>
orient al</w>
re affir
un de
évolu er</w>
Su p
bo is</w>
Nat ura</w>
condam né</w>
end rait</w>
internation ally</w>
mo stly</w>
ow ned</w>
prof ite</w>
t em
in equ
no ise</w>
tour ner</w>
I N</w>
Pos sel
Possel t</w>
S wit
cellu les</w>
li ked</w>
op enly</w>
r ating</w>
E EC</w>
c ope</w>
classi fication</w>
explo it</w>
j ac
A y
Al ex
Rw anda</w>
evalu ate</w>
h es
liv res</w>
organi c</w>
profon des</w>
stabil iser</w>
écr as
ar rog
house holds</w>
impli es</w>
mauv aises</w>
prouv é</w>
rhet oric</w>
P lat
formul é</w>
re sidence</w>
M un
constitu tionnelles</w>
irani en</w>
min eurs</w>
off ic
précau tion</w>
explicit ly</w>
jet er</w>
S ci
Su isse</w>
det ec
gén érer</w>
survi ve</w>
trad uc
xi de</w>
amélior é</w>
ban k
constitu tionnelle</w>
entam é</w>
inv ité</w>
sect ori
super visory</w>
ver a</w>
á n
présent es</w>
regar der</w>
EC HO</w>
ambiti euse</w>
atténu er</w>
leg e</w>
rev end
écr ite</w>
ASE AN</w>
Swit zer
Switzer land</w>
l ending</w>
mach ine</w>
ouver tement</w>
Ar genti
abs ent</w>
mar king</w>
mi rac
travail lons</w>
uc k</w>
v it</w>
ag on
ak h
au er</w>
autom ne</w>
dev ez</w>
diplomati ques</w>
dispar ités</w>
infr actions</w>
protes ts</w>
appe ar
min i
nam es</w>
potenti ellement</w>
sub i</w>
G h
fabric ants</w>
rend ement</w>
stop ped</w>
u t</w>
ul timate</w>
xéno phob
Phili pp
Wh o</w>
assur ant</w>
re verse</w>
avant ag
in ser
occu pied</w>
prostitu tion</w>
adv ances</w>
bi ologique</w>
IG C</w>
R us
T om
ach ev
ordin aires</w>
re ciproc
Abo ve</w>
P a
emp ire</w>
liquid ity</w>
op tim
s we
uni form
appropri és</w>
dev oted</w>
fif th</w>
hér itage</w>
la g</w>
dec entr
examin ation</w>
e b
v ation</w>
enregist rement</w>
mat ch</w>
om in
persist ent</w>
pron oncé</w>
re group
x en
Eu rat
Eurat om</w>
el ed</w>
fic tifs</w>
pre liminary</w>
proch ainement</w>
condi tional</w>
dispos és</w>
so l</w>
A mon
S A</w>
accr u</w>
ang lais</w>
envis aged</w>
mémo ire</w>
naturel le</w>
sui vie</w>
v endre</w>
cr at</w>
for mid
impli quées</w>
reti rement</w>
Er asm
I L
iss antes</w>
monit ored</w>
monopo ly</w>
re turned</w>
s laugh
C D
exist ante</w>
lis tening</w>
ré cup
Liber als</w>
Mold avie</w>
divi de</w>
défens eurs</w>
dég ag
frustr ation</w>
Pe ace</w>
circonscri ption</w>
gen oci
pro jec
res c
établ is</w>
Erasm us</w>
democrati cally</w>
e ase</w>
in su
intégr ante</w>
min ds</w>
autoris és</w>
draf t
décl ench
explo sion</w>
mani pulation</w>
ren contrer</w>
visi bles</w>
ani me</w>
chôm eurs</w>
extrémis tes</w>
far m</w>
ran g</w>
rich esses</w>
Johann es
Ol ympi
indi quent</w>
ag ré
ch ement</w>
dépl ore</w>
r ables</w>
c ités</w>
ce iling</w>
cou rir</w>
habil itation</w>
is ations</w>
pharmaceu tical</w>
standar dis
trans national</w>
infring ement</w>
or ateur</w>
so ever</w>
susc ite</w>
tho do
Mal te</w>
g ol
lend emain</w>
safegu ards</w>
sou p
Indon ésie</w>
cohér ent</w>
public ly</w>
registr ation</w>
devi endra</w>
m ature</w>
ste ad
C C
f ell</w>
fi ent</w>
in direct</w>
limit ées</w>
ti ème</w>
wor ried</w>
Ac tu
B our
S hi
confron té</w>
gro ss</w>
in jec
préc ision</w>
su nam
inequ alities</w>
relation ships</w>
ro ot</w>
réd action</w>
v ina</w>
Pal acio</w>
S tal
aut és</w>
behavi or</w>
im pe
parti ellement</w>
préci eux</w>
pursu ant</w>
ré actions</w>
Ar gen
assur é</w>
attach ed</w>
routi ère</w>
réuni r</w>
sp ati
épi démie</w>
O t
T u
Un til</w>
ci g
cour te</w>
impul sion</w>
s élec
sec ret
A T
all ed</w>
ex ag
incorpor ate</w>
ad vis
appar aître</w>
juris diction</w>
nom inal</w>
pu le</w>
T it
béné fique</w>
ous ness</w>
pes sim
Co sta</w>
dépl oi
fragment ation</w>
op ponents</w>
rédu isant</w>
si t</w>
Argenti ne</w>
arri ved</w>
c ash</w>
gener ated</w>
li mi
trait ées</w>
vo que</w>
what soever</w>
á n</w>
Eco fin</w>
con tenues</w>
em i
ro l
t acti
tox ic
den y</w>
juridi quement</w>
quotidi en</w>
s ond
ê t
S ri</w>
attribu tion</w>
décisi onnel</w>
mach ines</w>
nomm é</w>
ré alités</w>
J ar
S ti
com ités</w>
g er
mo tor</w>
Mon day</w>
Shar on</w>
parallè le</w>
souv enir</w>
témo igne</w>
Colombi a</w>
ais ons</w>
effor cer</w>
Demo cracy</w>
acces sibles</w>
ic ing</w>
on to</w>
ti ge</w>
tionn ellement</w>
y de</w>
D av
T AC
apport ées</w>
det ention</w>
horizont al</w>
re productive</w>
soci ally</w>
vo terons</w>
D ay</w>
apport ée</w>
pil ot</w>
ré ci
Lik ewise</w>
initi ated</w>
éché ant</w>
Alg eria</w>
Go als</w>
Vladi mir</w>
em pre
st up
sév ères</w>
tari ff</w>
ér in
doctr ine</w>
immun ity</w>
ner ait</w>
vill ages</w>
Kur dish</w>
age ous</w>
chem ins</w>
dig ne</w>
pre requis
protég és</w>
re mon
w ind</w>
W all</w>
aquac ulture</w>
examin ing</w>
justi fiée</w>
nation alism</w>
Ann an</w>
CA M
Nor dic</w>
con vers
cre ative</w>
famili ale</w>
institu tionnels</w>
procé dé</w>
remplac ement</w>
vrai e</w>
ag issent</w>
appro ches</w>
mil le</w>
mo ther</w>
out lined</w>
re jette</w>
rel â
tr ente</w>
C old</w>
anis m</w>
c élé
consolid ate</w>
corri ger</w>
lob by
pr ô
réalis ées</w>
t sunam
Colombi e</w>
contradic tions</w>
H ence</w>
capit alism</w>
in compatible</w>
san itaire</w>
Cel ui</w>
E v
Re publi
concer t</w>
trag ique</w>
val able</w>
ear th
en cl
o ss
I C</w>
Mus lim
i enne</w>
A ir
T an
XXI e</w>
bre ach</w>
con fer
deven us</w>
ir régul
lib érer</w>
spec ul
vol et</w>
G E</w>
dre am</w>
i zed</w>
indi gn
méditerran éen</w>
u la</w>
ä n
EL DR</w>
approuv ée</w>
fe ature</w>
fulf illed</w>
modi fiés</w>
s mar
se at</w>
vo cation</w>
Muslim s</w>
ass or
autoris é</w>
b ench
cig aret
criter ion</w>
deb ts</w>
dic tions</w>
dis advant
no tic
op érer</w>
organi zed</w>
p are
pre text</w>
rem is</w>
substanti elle</w>
ter ial</w>
CN S</w>
absur d</w>
nor di
û ment</w>
d esti
g ets</w>
sympa thy</w>
amélior ée</w>
immun ité</w>
j eux</w>
inter ference</w>
palestini ens</w>
program ming</w>
For tun
appro ach
atmo sphere</w>
dispos é</w>
enc oun
forest ation</w>
occident al</w>
op his
Euro just</w>
cap ture</w>
fam ine</w>
heu r
no y
sen ior</w>
string ent</w>
sur pris</w>
économi quement</w>
att endant</w>
fo ster</w>
it eurs</w>
médic aux</w>
sépar ation</w>
Y outh</w>
clo sing</w>
dou ze</w>
dé penser</w>
re tra
re vers
sol s</w>
pati ence</w>
z o
S O
ed a</w>
in sécurité</w>
leng th</w>
pertin entes</w>
rail ways</w>
s essions</w>
statu te</w>
Re form</w>
bl ess
Al low</w>
C ould</w>
m ai
satis faits</w>
C ode</w>
fédér al</w>
pres ents</w>
sincer e</w>
suppri m
h o</w>
CI A</w>
VI H</w>
g ènes</w>
in utiles</w>
resum ed</w>
statis tical</w>
ven ant</w>
voud rait</w>
Deuxi ème</w>
Sloven ia</w>
c um
con dol
li vr
p ages</w>
vo ici</w>
éli ens</w>
ér adi
C ur
fin dings</w>
geo political</w>
miss ed</w>
nation alisme</w>
oppos ants</w>
rel uc
de part
ed ul
ob sol
impos é</w>
industri elles</w>
orient er</w>
s ophis
tent ent</w>
Eri ka</w>
N a
PN R</w>
ab att
co des</w>
ren dus</w>
sub ir</w>
étab lie</w>
Fortun ately</w>
sensib lement</w>
octro yer</w>
réalis tes</w>
tech no
univers ité</w>
avoi ding</w>
cl ame</w>
demand ed</w>
op oulo
tari ffs</w>
R os
appréci ation</w>
eu tiques</w>
pr ends</w>
vieill issement</w>
b ond</w>
tomb er</w>
di minis
e e</w>
f um
grav ement</w>
mit ting</w>
po orer</w>
acc entu
massac re</w>
pru d
saou dite</w>
E F
an des</w>
pre stations</w>
réjou issons</w>
salu ons</w>
CI G</w>
l or
on ale</w>
restau rer</w>
s pre
val oris
considé rées</w>
enter prise</w>
réalis ée</w>
souff re</w>
voul ait</w>
en ever</w>
fin ish</w>
in capables</w>
me ets</w>
plat form</w>
qu ick</w>
s ad</w>
af gh
ent ends</w>
recomm ended</w>
t elling</w>
h élas</w>
performan ces</w>
ra c</w>
tum n</w>
asi ment</w>
défin it</w>
gen ous</w>
éventu elles</w>
dan ois</w>
détru ire</w>
ent our
persu ade</w>
comm ises</w>
commenc ent</w>
hongro is</w>
met s</w>
min bi</w>
plac é</w>
pu ni
émerg entes</w>
dy s
en sured</w>
i ting</w>
profon d</w>
recogn ises</w>
Christi ans</w>
G ulf</w>
at om
capit a</w>
exc éd
fre ight</w>
il lusion</w>
vers ement</w>
conjo inte</w>
limi ting</w>
rig orous</w>
alis ations</w>
bur d
comple tion</w>
continu erons</w>
inclu t</w>
mal aria</w>
reven ues</w>
rog atives</w>
sex e</w>
P O
Philipp ines</w>
chaî nes</w>
fi ance</w>
inqui ry</w>
mobi lier</w>
olo gues</w>
rédu its</w>
Alg érie</w>
Paci fic</w>
Wall ström</w>
assess ing</w>
e hear
m él
pré cip
spec ulation</w>
whol ehear
G ö
air port</w>
alo gues</w>
ater n
condi tionn
correc tion</w>
dev ises</w>
export er</w>
genoci de</w>
inté resse</w>
ve get
Tech nolo
desi red</w>
frapp é</w>
B lack</w>
acquisi tion</w>
dé passer</w>
employ er</w>
in égalité</w>
ré pan
stri kes</w>
Sahar a</w>
bur ant</w>
cent er</w>
chac une</w>
e v</w>
hau ts</w>
manifest ation</w>
travail lant</w>
Speci al</w>
cat aly
en fre
illég aux</w>
in tr
norm alisation</w>
Cy pri
Ferre ro</w>
chann els</w>
cré ée</w>
gu ided</w>
Herz ég
accep tation</w>
ch anti
comb ine</w>
nu l</w>
offici el</w>
org an</w>
toni ght</w>
work force</w>
Herzég ovine</w>
T a
sid er</w>
tou ch</w>
O omen</w>
cher a</w>
d ner</w>
dés armement</w>
min or</w>
oc é
religi ons</w>
sensibil isation</w>
An y
D ur
N atu
remo val</w>
Argen tina</w>
P H
Tali ban</w>
ence inte</w>
resti tu
ver ts</w>
wr ite</w>
équi val
age ing</w>
av an
dom ination</w>
f ant
rel lement</w>
rubri que</w>
scep tic
threat en</w>
Chr ist
Kaz akh
affec te</w>
ain ly</w>
monopo le</w>
rob ust</w>
E R
Kazakh stan</w>
Natu rellement</w>
Univers ity</w>
pres sed</w>
rec orded</w>
refus al</w>
ren minbi</w>
ri ties</w>
démant èlement</w>
mag ni
raisonn ables</w>
rou ghly</w>
stric tement</w>
ur ité</w>
adap ted</w>
conc evoir</w>
dispar aître</w>
en a</w>
prépar é</w>
qu asiment</w>
undermin ing</w>
v ét
Herz ego
Sh ould</w>
Wal dner</w>
charac ter</w>
differ enti
fix ation</w>
gener ous</w>
hor mon
ir regul
pro active</w>
surpris ing</w>
B et
Rom anian</w>
V ol
con tenant</w>
fonctionn ent</w>
overwhel ming</w>
sign atures</w>
av al</w>
deep er</w>
ess ais</w>
kil om
pass ing</w>
re percussions</w>
rein forced</w>
simultan e
Ple ase</w>
av eu
co ver
cô tes</w>
délég ations</w>
Auc une</w>
Cor bet
E conom
ativ ité</w>
co stly</w>
descri ption</w>
pro mettre</w>
réglement aires</w>
Corbet t</w>
Herzego vina</w>
attemp ting</w>
au tumn</w>
con former</w>
isl ands</w>
it als</w>
journ aux</w>
touch ent</w>
B ow
anci ennes</w>
arrest ed</w>
automob iles</w>
cho c</w>
dé l
entend ons</w>
facil ité</w>
im er</w>
ir re
préf érence</w>
répon dent</w>
wh ite</w>
C elle</w>
M édi
PH ARE</w>
al t
is ms</w>
X i</w>
ach em
dis placed</w>
impati ence</w>
j ten</w>
négoci é</w>
recycl age</w>
rév olu
table au</w>
b ra
express ément</w>
fac ility</w>
fil m</w>
incit ation</w>
ir ré
médec ins</w>
Rui jten</w>
adul tes</w>
ber t</w>
renfor çant</w>
Accor d</w>
exemp tions</w>
inves ted</w>
mo ves</w>
sup er</w>
vois in</w>
Slo vé
Slové nie</w>
appu ie</w>
b ill
b loo
bl ind</w>
cent uries</w>
cont empor
mentionn és</w>
s h</w>
sup pos
BR ID
BRID GE</w>
CAM BRIDGE</w>
conn us</w>
dio xide</w>
examin ons</w>
im mobilier</w>
GM Os</w>
aff lu
présent era</w>
requ is</w>
souten ant</w>
Chin ois</w>
compu ter</w>
défini tif</w>
formul ée</w>
idé al</w>
sch edul
tu rer</w>
ô mes</w>
H arb
Nat urally</w>
caus és</w>
ch ev
condam n
cu l</w>
g es
hypo thèse</w>
in admissible</w>
modi fiant</w>
reflè tent</w>
sec ut
élector al</w>
Re ding</w>
compar e</w>
dis proportionn
dre w</w>
lour ds</w>
on er</w>
p ère</w>
pill ars</w>
Co hn</w>
Institu t</w>
cy n
enshr ined</w>
ep h
incit ations</w>
ing éni
par a
pertin ent</w>
sh ap
devast ating</w>
err ors</w>
R en
T err
arr ass
car burants</w>
détermin ant</w>
gene tic</w>
minist éri
pap ier</w>
per c
re trouve</w>
sem estre</w>
ab u
b acks</w>
b it
cré anci
form ally</w>
voc ational</w>
Ara fat</w>
affec tés</w>
autrichi enne</w>
bure aux</w>
disadvant aged</w>
disponi bilité</w>
fur thermore</w>
liber alization</w>
off res</w>
on ique</w>
propri étaires</w>
simpli fied</w>
W ould</w>
ann oncer</w>
coop ér
des quels</w>
lis ts</w>
r aci
rati fier</w>
respec tées</w>
RE S</w>
assu red</w>
cau ght</w>
comm and
dess ous</w>
déploi ement</w>
enti tés</w>
souffr ance</w>
ti an</w>
él ève</w>
Ar men
L om
objec t</w>
représent ante</w>
offici elles</w>
paragrap hs</w>
prê me</w>
soulev ées</w>
un anime</w>
J er
Ma h
avi on</w>
comm end</w>
d ness</w>
de ploy
ext érieurs</w>
respon ding</w>
univers ity</w>
R ü
hop efully</w>
nar row</w>
pre me</w>
Est onia</w>
Mac ron</w>
c ils</w>
c élè
ent i</w>
far deau</w>
g ases</w>
géno cide</w>
f ill</w>
poss èdent</w>
to wn</w>
where ver</w>
Ben dit</w>
P S</w>
honn ête</w>
idé ologie</w>
l ance</w>
su ms</w>
aband oned</w>
accoun table</w>
fo od
illég al</w>
liv rer</w>
mar qu
prov in
H ay
authorit arian</w>
e te</w>
pes er</w>
pu issant</w>
ren due</w>
éché ance</w>
Contr airement</w>
Isra éliens</w>
ca p</w>
ori ented</w>
sol ving</w>
stre ets</w>
tsunam i</w>
échapp er</w>
Ad ministr
E ff
Liber ties</w>
Médi ateur</w>
R O
ad or</w>
carri ère</w>
comp tent</w>
es tin
fer m
formid able</w>
H ague</w>
US D</w>
mi x</w>
progres sion</w>
pun ishment</w>
eman n</w>
i ez</w>
il ed</w>
mé pris</w>
origin ally</w>
rétabl issement</w>
sti pule</w>
trem end
wor ry</w>
x th</w>
Er do
ar sen
ard ous</w>
consci ente</w>
dis rup
ill er</w>
par vient</w>
Quatri èmement</w>
avor tement</w>
cap abilities</w>
constitu era</w>
hosti l
influenc er</w>
investig ate</w>
mort alité</w>
nov ation</w>
E E
Vi enna</w>
ad hér
ch és</w>
cont est
ob struc
oblig és</w>
portug ais</w>
re di</w>
sanc tion</w>
suici de</w>
tack led</w>
Mosco w</w>
Syri an</w>
b ill</w>
dou ane</w>
défini tivement</w>
inév itablement</w>
lif el
mo tif</w>
ow ners</w>
sel ling</w>
unde res
deleg ations</w>
ent reti
govern ed</w>
moder ate</w>
publi quement</w>
sur prenant</w>
Johannes burg</w>
confir mation</w>
lifel ong</w>
multin ational</w>
opérationn el</w>
se es</w>
z emb
éclai r
F E
J osé</w>
V u</w>
ambigu ï
bio fuels</w>
diminu é</w>
ob tention</w>
pré co
second ary</w>
transfer red</w>
vit ale</w>
Objec tive</w>
brev et</w>
l aying</w>
nam o</w>
su st
Guant á
Guantá namo</w>
Jar zemb
R am
Th an
on aise</w>
qu e
univers elle</w>
vol s</w>
Bo ard</w>
k m</w>
man œuvre</w>
Ang let
Anglet erre</w>
Jun cker</w>
c ells</w>
contr aints</w>
différ enci
dét ach
effectu és</w>
favor ise</w>
financ és</w>
ist an
oppos ent</w>
siè cles</w>
ach et
at a</w>
cu b
emphasi ze</w>
pip eline</w>
pour rais</w>
véc u</w>
Vo tre</w>
Wh ilst</w>
ac tionnaires</w>
assist ants</w>
car burant</w>
conc entre</w>
div or
enh ancing</w>
fer ai</w>
low est</w>
modi fiée</w>
pi on
po sts</w>
system atically</w>
V it
ati vely</w>
Mosco u</w>
dérog ation</w>
détermin é</w>
parliam ent
pl as
pos session</w>
re loc
thor ou
vo iture</w>
Arc tic</w>
Jarzemb owski</w>
ag an</w>
alarm ing</w>
dis abilities</w>
don or</w>
isol ated</w>
medic inal</w>
peu pl
popul ist</w>
requi ring</w>
ti tle</w>
Lat via</w>
Pro c
ai dera</w>
bri dge</w>
bu b
concer tation</w>
facilit ating</w>
illus tre</w>
l undi</w>
moment um</w>
r uns</w>
t ape</w>
compati bles</w>
correspon ding</w>
endeav our</w>
endro its</w>
fashi on</w>
in k</w>
purch ase</w>
ér ences</w>
bro ken</w>
dis positif</w>
re e</w>
any where</w>
ou est</w>
paragrap hes</w>
pen ing</w>
pluri annuel</w>
proxim ité</w>
saf er</w>
satis faisant</w>
Fri day</w>
Initi ative</w>
fé min
perman ence</w>
ste el</w>
La w</w>
dé lib
k illing</w>
li aison</w>
U C
Vi enne</w>
ad er</w>
af i</w>
allem ands</w>
ch et</w>
de lic
es cape</w>
indic ates</w>
sh oul
sk y</w>
apport ent</w>
chan ce
chil d
du rement</w>
expand ing</w>
jug é</w>
prom ising</w>
t ariat</w>
comm et
fréqu emment</w>
reve aled</w>
s our
A C</w>
abor tion</w>
authoris ed</w>
ay er</w>
dés esp
haz ardous</w>
justi fié</w>
o v</w>
sauv etage</w>
sh are
tr ained</w>
Th ess
alli ances</w>
avail ability</w>
ch ypri
dén oncer</w>
for d</w>
respon ded</w>
témo ign
ú n</w>
Bus iness</w>
décou lant</w>
développ e</w>
ex erce</w>
inten sité</w>
mani ères</w>
pru dent</w>
ro ll</w>
Bi élor
Glob alisation</w>
K ir
colon ies</w>
de triment</w>
domm age</w>
Cam er
Ukrain ian</w>
a sus</w>
dési re</w>
ide ology</w>
liquid ités</w>
P as</w>
ari ous</w>
cal cul</w>
isi ble</w>
prag matic</w>
profession als</w>
requ ises</w>
rul ed</w>
résum é</w>
équi valent</w>
Leh ne</w>
U R
comprehen sible</w>
désas tre</w>
exc ès</w>
irrégul arités</w>
iter ait</w>
motiv ation</w>
retra ites</w>
weak en</w>
Ag ainst</w>
E ach</w>
W il
co ins</w>
d den
dden ly</w>
en di
hand ed</w>
incre di
pi erre</w>
prac tically</w>
tun nel</w>
H eureusement</w>
Ro th</w>
handic ap</w>
judici ary</w>
lég al</w>
produc er</w>
m ol
Cauc ase</w>
Israel is</w>
NG TON</w>
W AS
comit ologie</w>
fl é
insuffis ante</w>
ret omb
référ endums</w>
sugg éré</w>
M uch</w>
Thess al
apport era</w>
bov ine</w>
em en</w>
g ly</w>
new ly</w>
particip e</w>
pré voient</w>
prê ter</w>
ér ap
K u
affir ment</w>
assess ed</w>
cess é</w>
dec iding</w>
diff er</w>
doc tors</w>
docum ent
fo ods</w>
it ary</w>
maxim ale</w>
precau tionary</w>
re sidents</w>
ship ping</w>
S E
alloc ations</w>
contribu tes</w>
di an</w>
pro file</w>
rembour sement</w>
ro te</w>
ré agi</w>
th érap
Actu ellement</w>
Cauc asus</w>
Dec ision</w>
Lan ka</w>
Re hn</w>
bilatér ales</w>
constitu ency</w>
harmon ise</w>
lanc ée</w>
burd ens</w>
iss es</w>
parviend rons</w>
b and</w>
la issent</w>
mor atori
rh ét
C oll
S es</w>
accomp agner</w>
bureaucrati que</w>
combin aison</w>
fli ghts</w>
lingu istique</w>
menti onne</w>
Afgh an</w>
acqu érir</w>
au d</w>
b ound
dis sem
exécuti f</w>
it i</w>
tis me</w>
toxi c</w>
H oll
Sm all</w>
cro ît</w>
déci de</w>
floo ds</w>
in croy
jug és</w>
n ette</w>
out comes</w>
parven ue</w>
ra rement</w>
stric ter</w>
ô te</w>
add resses</w>
aggrav er</w>
bre aking</w>
gar anti</w>
glob ally</w>
pus hing</w>
résul tant</w>
tari fs</w>
P ack</w>
ban anes</w>
bill ets</w>
cy cles</w>
en gr
exc é
pend ing</w>
per secution</w>
schedul ed</w>
w all</w>
Ch ers</w>
WAS HI
arm ament</w>
fal si
fif teen</w>
in juste</w>
regis tered</w>
résolu ment</w>
spéci fic
Éco sse</w>
S T
TAC IS</w>
WASHI NGTON</w>
conserv ative</w>
cont ents</w>
enjoy ed</w>
es cl
fourn issent</w>
il ement</w>
pén ales</w>
résolu e</w>
sus citer</w>
ari os</w>
con tenus</w>
dispar ities</w>
enregistr é</w>
financ é</w>
off rant</w>
w rote</w>
baiss er</w>
commun ist</w>
continu eront</w>
dram atique</w>
faibl esses</w>
partag ée</w>
pri ori
équ ité</w>
équi voque</w>
Lom é</w>
Pri ze</w>
commod ity</w>
en force</w>
intéress ante</w>
sec uring</w>
y ou
Commun autés</w>
brè ve</w>
democrati sation</w>
focus es</w>
lingu istic</w>
missi le</w>
Every one</w>
atti re</w>
aut re
autre fois</w>
on z
philosophi e</w>
pren antes</w>
í a</w>
ğ an</w>
ME DA</w>
Res er
assou pl
automati cally</w>
cré ent</w>
om s</w>
regul ators</w>
v ici
benefici aries</w>
co financement</w>
d ens
du pli
lang age</w>
renouvel able</w>
sit ue</w>
Ch ur
G F</w>
Man n</w>
Throu gh</w>
arriv és</w>
commen cer
p an</w>
port es</w>
pu issants</w>
ré putation</w>
souffr ances</w>
vacc ins</w>
visi bilité</w>
ér able</w>
e il</w>
f light</w>
fi d
occup ent</w>
rapp ell
tr iste</w>
ME P</w>
S tu
end ers</w>
esti mer</w>
k new</w>
mainten u</w>
qu ante</w>
remin ded</w>
ro s</w>
subjec ted</w>
unilatér ale</w>
véri fication</w>
advoc ates</w>
fon dements</w>
phénom ènes</w>
ré clame</w>
souten us</w>
tow ns</w>
Biélor ussi
Biélorussi e</w>
c as
irregul arities</w>
mutu ellement</w>
sembl ait</w>
v an
vét érin
ad ding</w>
allou és</w>
announc ement</w>
augment ent</w>
der ont</w>
dégrad ation</w>
fam ous</w>
mor atoire</w>
Gu ine
I A</w>
L ett
coordin ating</w>
hal t</w>
le gi
modes te</w>
weak ness</w>
Cham bre</w>
Harb our</w>
Republi can</w>
ad ays</w>
fer ti
m ou
st ating</w>
Lett onie</w>
concentr ated</w>
domin ated</w>
inc in
pre dec
ress enti
él ite</w>
Bö ge</w>
Erdo ğan</w>
administr atifs</w>
be au</w>
boo ks</w>
distor sions</w>
exhausti ve</w>
expli cit</w>
ins ol
noti fication</w>
per form</w>
preced ent</w>
ro l</w>
s élection</w>
tw are</w>
D EM</w>
Rel ations</w>
améli ore</w>
deteri or
pa th
rav ie</w>
P an
am i
coû te</w>
douani ère</w>
ir responsible</w>
ri d
rê ve</w>
vigil ance</w>
asi atiques</w>
differ ently</w>
draft sman</w>
m ère</w>
play er</w>
resc ue</w>
rédi ger</w>
seri ons</w>
app alling</w>
endu es</w>
in acceptables</w>
né o
onn ellement</w>
prohi b
propor tions</w>
vo l</w>
caus é</w>
conduc teurs</w>
guil ty</w>
présidenti elle</w>
st ers</w>
uni fied</w>
Pu is
So crates</w>
adap tée</w>
inter action</w>
inter locu
medic ine</w>
ord able</w>
resor t</w>
strai ght</w>
top ics</w>
Amon g</w>
è g
Ab bas</w>
commun istes</w>
initi alement</w>
moratori um</w>
problem atic</w>
ri ve</w>
sub venti
A N
F ound
ar is
excé dent</w>
in appropriate</w>
remo ving</w>
Ange la</w>
Fe deration</w>
Ob serv
décou le</w>
fin i</w>
human e</w>
légi férer</w>
rég issant</w>
sou d
affaibli r</w>
ev y</w>
fon de</w>
pl ong
préfér ences</w>
prévoy ant</w>
re memb
t less</w>
dispar u</w>
dé passé</w>
exist ait</w>
h i</w>
re porter</w>
ren ation
t one</w>
bâ tir</w>
ch air</w>
descri be</w>
end rai</w>
Australi a</w>
Gre en
complex ity</w>
diagno stic</w>
quali fié</w>
su prême</w>
tubercul ose</w>
we b
al lez</w>
all s</w>
dispos ée</w>
dé cr
es to
ex posés</w>
prepar atory</w>
N ouv
ai es</w>
bigg er</w>
con front</w>
consac rés</w>
continu ité</w>
defe at</w>
radic ale</w>
PES C</w>
R ound</w>
S ur
agg ing</w>
assemb ly</w>
food stuffs</w>
intéress és</w>
ou ff
propos ant</w>
présidenti elles</w>
qui conque</w>
re poser</w>
shar p</w>
tr y
ur é</w>
D o
b en
comport ements</w>
emerg ence</w>
ex position</w>
fermet é</w>
in cur
inter f
just es</w>
lour de</w>
se ats</w>
teach ers</w>
transit oire</w>
doub ler</w>
g al
intéri maire</w>
it ting</w>
multi ple</w>
p pe</w>
requ ête</w>
witn essed</w>
è vre</w>
Indus trial</w>
Reser ve</w>
amen é</w>
ar ises</w>
atmo sphère</w>
fu ite</w>
h r
milit ants</w>
n º</w>
supran ational</w>
L ang
R I
Secon de</w>
av éré</w>
cle an
comp t
la issant</w>
norm ally</w>
s éche
ten e
R oc
ag ira</w>
are ly</w>
emp ty</w>
n a</w>
thir ds</w>
weak nesses</w>
gén étique</w>
par lent</w>
thin ks</w>
tor ate</w>
appear ance</w>
bu ying</w>
deli very</w>
extrê mes</w>
m ail</w>
propag ande</w>
sach ant</w>
tradi tionnelle</w>
N eigh
approfon dir</w>
coût eux</w>
discrimin atory</w>
in security</w>
la v</w>
lég ales</w>
nul lement</w>
onn elles</w>
regul ating</w>
è tre</w>
cident ally</w>
coup ables</w>
custom ers</w>
demonstr ation</w>
diox yde</w>
dép ens</w>
er ra</w>
ir o</w>
sof tware</w>
u rie</w>
w ast
Est onie</w>
approfon di</w>
défavoris ées</w>
encourag é</w>
es el</w>
ferrovi aires</w>
philosoph y</w>
pres sures</w>
sur g
tar di
traduc tion</w>
vig or
wis hed</w>
IN D</w>
fea sible</w>
mesu rer</w>
multi annual</w>
parven ons</w>
E l</w>
T e
Than ks</w>
con qu
con viendrait</w>
fail le</w>
hon te</w>
poin te</w>
v astes</w>
Dar fur</w>
Fin ance</w>
Li ik
Mon tene
Olympi c</w>
Rus ses</w>
bi ologiques</w>
fe der
fix ées</w>
impres sionn
or ino</w>
suspici on</w>
ti a</w>
Cas tro</w>
app ed</w>
cong é</w>
conn ues</w>
int enti
jap onais</w>
C ôte</w>
Poli tical</w>
Whe ther</w>
character ised</w>
impli quent</w>
migrat oires</w>
mill énaire</w>
n ur
poli es</w>
réci pro
éch o</w>
Govern ments</w>
Mau rit
con for
dis cré
en sures</w>
enc er</w>
meaning ful</w>
pain ful</w>
pré tendre</w>
sev e
A ri
Pu is</w>
cons ists</w>
dat ab
défin ie</w>
démocrati quement</w>
e ge</w>
fores try</w>
re dev
st ab
the tic</w>
Chi rac</w>
Dar four</w>
Liik anen</w>
Vit orino</w>
demonstr ations</w>
diri ger</w>
elimin ating</w>
enthusias m</w>
every day</w>
fourn is</w>
ter res
undermin ed</w>
b ying</w>
bas ées</w>
cab in
déc ess
esto ck</w>
lég u
pré décess
pén urie</w>
refer ences</w>
tun a</w>
S pring</w>
adjust ments</w>
affec ter</w>
b res</w>
delic ate</w>
diff ic
we b</w>
ar isme</w>
diffic ilement</w>
is tr
éman ant</w>
I voire</w>
ar i</w>
c ast</w>
do ig
li ved</w>
Barro t</w>
atten du</w>
enc ed</w>
mort g
multilatér al</w>
réflexi ons</w>
short age</w>
un certain</w>
vend redi</w>
P ren
attr act</w>
dram atically</w>
géo graphiques</w>
p au
war m</w>
Free dom</w>
Lam y</w>
dist ances</w>
interpre ted</w>
préoccup és</w>
An née</w>
Four thly</w>
ad mis</w>
atte intes</w>
convinc ing</w>
diff us
do ors</w>
e rez</w>
envis age
eu rement</w>
four nies</w>
i fs</w>
integr al</w>
perce ived</w>
prefer red</w>
qu ait</w>
scand ale</w>
st resses</w>
sust ain</w>
aggres sive</w>
hard t</w>
min uti
pass ent</w>
problé matiques</w>
rhét orique</w>
trait ée</w>
we al
C al
explo ited</w>
fr anc
has ard</w>
integr ating</w>
pass ées</w>
pre ment</w>
re traités</w>
re viewed</w>
K ab
adap tées</w>
consul ter</w>
critic isms</w>
exclu de</w>
l ets</w>
slow ly</w>
spéc ulation</w>
syner gies</w>
transfrontali ères</w>
ab outi</w>
br as</w>
expli cite</w>
extr action</w>
si e</w>
st ad
ti ré</w>
I V</w>
adéqu ats</w>
afric ain</w>
effor ce</w>
fi èvre</w>
lob bying</w>
nul le</w>
pat ents</w>
pursu it</w>
refu ge</w>
sect oral</w>
sign als</w>
suffis ants</w>
Per spec
appar aissent</w>
cré és</w>
direc tions</w>
hypo th
lu x
oli ve</w>
st al
D al
S and
dedic ated</w>
dé pense</w>
optimis tic</w>
plur alisme</w>
propos ent</w>
w est</w>
wh enever</w>
è ges</w>
C S
charg ed</w>
compon ents</w>
corri d
critic ised</w>
form ed</w>
soci alist</w>
stad t</w>
tr ains</w>
Australi e</w>
an é
bi ological</w>
di esel</w>
du m</w>
dépend ra</w>
dépens é</w>
ed n
individu elles</w>
r endant</w>
urg ed</w>
go ver
h aine</w>
hosti le</w>
inser tion</w>
ir respective</w>
k i
log ici
é preuve</w>
act or</w>
autor ise</w>
confron tées</w>
consac rée</w>
del ayed</w>
encour ages</w>
entre tenir</w>
intég rées</w>
jou ets</w>
judg es</w>
propag ation</w>
pus hed</w>
ress ource</w>
seve rely</w>
Russi ans</w>
am ène</w>
dou lou
hu mi
montr ant</w>
satis fy</w>
sor tes</w>
threat ens</w>
understand able</w>
Cre evy</w>
R apport
avanc ement</w>
control ling</w>
créanci ers</w>
de regulation</w>
emb all
go la</w>
met tr
re alities</w>
re fr
ro se</w>
ter ly</w>
Mc Creevy</w>
N either</w>
félicit ons</w>
liv estock</w>
pu r</w>
thorou ghly</w>
trouv ée</w>
œuv rer</w>
H it
O s
P ék
Pék in</w>
U l
auton ome</w>
cro it</w>
dériv és</w>
with drawn</w>
étrang e</w>
No ire</w>
portug aise</w>
ér adic
An gola</w>
Bar ón</w>
Con form
ambigu ous</w>
corpor ations</w>
elector ate</w>
entraî nera</w>
form ations</w>
insuffis ant</w>
jug es</w>
lour d</w>
nécess itent</w>
publi er</w>
transport ation</w>
ét endu</w>
Bang emann</w>
N ew
bor g</w>
de par
dg es</w>
do s</w>
prim aire</w>
professionn el</w>
répon d
éradic ation</w>
Pro che</w>
W edn
abst enir</w>
ag s</w>
ar do</w>
d ûment</w>
env elopp
or thodo
pli t</w>
prépar e</w>
rassemb ler</w>
smo king</w>
su ddenly</w>
travail l
Ch ac
E thiop
S én
c ouverts</w>
concurr ents</w>
individu elle</w>
ing érence</w>
mala des</w>
simultan ément</w>
sou l
souti endra</w>
t t
accep tée</w>
aff air</w>
assum ed</w>
cre di</w>
exc ess</w>
identi que</w>
out break</w>
recycl ing</w>
sol v
sû rement</w>
Neigh bour
P ow
déf endu</w>
inter medi
pro longer</w>
progress é</w>
quanti ty</w>
sa h
scand al</w>
sep tième</w>
Ri o</w>
T imes</w>
g aps</w>
r um
ther ap
volon tiers</w>
Found ation</w>
Qu art
Sec ré
cul p
on ess</w>
p et
propag anda</w>
con tenir</w>
el ite</w>
in gr
p t</w>
scru pul
trav elling</w>
us ines</w>
Su stain
al g
délég u
g anda</w>
itu de</w>
mis ère</w>
sh ame</w>
tes ted</w>
uph old</w>
Bar oness</w>
Conform ément</w>
Eng land</w>
h av
Be h
Guine a</w>
Paci fique</w>
ali ke</w>
ani ans</w>
comm ission
conç u</w>
obt aining</w>
signi fication</w>
Hit ler</w>
P en</w>
P h
a ï</w>
ar der</w>
d ad</w>
franch ement</w>
lob by</w>
sh ore</w>
Th om
activ ists</w>
avo id
fulf illing</w>
honor ables</w>
o ï
wholehear tedly</w>
Del ors</w>
Wedn esday</w>
all evi
att ache</w>
ce ase</w>
dis turb
promo tes</w>
C ity</w>
fo oting</w>
intég rés</w>
occident ales</w>
portu aires</w>
Res olution</w>
charg és</w>
coun try
dérog ations</w>
gr as
im mobili
re joint</w>
transport eurs</w>
Canc ún</w>
Montene gro</w>
ach ats</w>
enseign ements</w>
m outh</w>
multi lingu
n aï
remo te</w>
sion ers</w>
spec tre</w>
An d
co ï
compli ed</w>
l ap
ré sidence</w>
sub issent</w>
dé poser</w>
excl us</w>
li ères</w>
plan étaire</w>
stup é
symbo le</w>
ter ne</w>
tremend ous</w>
ven ez</w>
con formes</w>
elimin ation</w>
fi ers</w>
monopo les</w>
stab ili
susp ens</w>
tr um</w>
éradi quer</w>
El ec
bat ter
contin ents</w>
indi quant</w>
précon ise</w>
siè ges</w>
ste in</w>
th r
un its</w>
Ha iti</w>
W o
des quelles</w>
determin ing</w>
ignor ance</w>
opérationn elle</w>
pour suivi</w>
qua ke</w>
sec ours</w>
sk illed</w>
ul tra</w>
Fr ont</w>
bou lever
cer cle</w>
en forced</w>
g old</w>
par fait</w>
pré visible</w>
touch é</w>
zi o</w>
arm és</w>
cr aindre</w>
dis gr
eu e</w>
provis oire</w>
réserv é</w>
comb att
he imer</w>
l acks</w>
ol ympi
s plit</w>
s wit
tr au
volont aires</w>
xénophob ie</w>
audi tion</w>
commun isme</w>
déf end</w>
il er</w>
pr aise</w>
soulev ée</w>
app auv
détéri oration</w>
intensi fication</w>
la ï
produc tions</w>
selec tion</w>
Al z
care er</w>
confir ms</w>
coï n
dead lines</w>
on i</w>
work er</w>
éri eurement</w>
Franç ais</w>
L à</w>
bru it</w>
hou ses</w>
m util
no w
pen sez</w>
pl ainte</w>
si xième</w>
subs ist
symboli c</w>
warr ant</w>
écou te</w>
Mal m
ab str
acqu it
ear th</w>
intitu lé</w>
m ères</w>
onn ements</w>
pl au
un equi
é min
S W
artifici al</w>
certi tudes</w>
compar ables</w>
constitu erait</w>
manag ers</w>
nation alité</w>
no table</w>
pun ished</w>
re turns</w>
reco ver</w>
sec ular</w>
temp ér
tra ç
Fé dération</w>
amén agement</w>
ex pir
guid ance</w>
identi ques</w>
pré judici
weak er</w>
ég yp
asi atique</w>
emphas ises</w>
g ène</w>
house hold</w>
impli qué</w>
in si
mutu ally</w>
pré tend</w>
préco ce</w>
préf éré</w>
P resti
c ards</w>
dis sement</w>
reconn ais</w>
secré tariat</w>
stri ve</w>
trag e
vigil ant</w>
candid ature</w>
distinc t</w>
explan ations</w>
in directly</w>
mo teurs</w>
Alz heimer</w>
ar m</w>
clu b</w>
expul sion</w>
fe els</w>
pres s
separ ation</w>
ö r
associ é</w>
poursu ites</w>
pre ference</w>
preser ving</w>
urb aines</w>
A I
Go og
Presti ge</w>
aff ordable</w>
auth ors</w>
aveu g
comit ology</w>
condem nation</w>
favoris ant</w>
ins istance</w>
mea sured</w>
parti al</w>
pouss é</w>
produ ise</w>
prot é
tem per
comp as
remar k</w>
slog an</w>
so i
CF SP</w>
Mont éné
Th ree</w>
assassin at</w>
chi ef</w>
ci el</w>
fin ds</w>
indi genous</w>
n az
ri dic
rou ge</w>
w ater
H aï
abor dés</w>
attribu er</w>
consenti s</w>
emp i
israéli enne</w>
prerequis ite</w>
radio active</w>
vo ices</w>
wor th
Hay e</w>
L E
b arg
cont our
en z</w>
n t</w>
struc turel</w>
éth iques</w>
fo li
fol d</w>
impl y</w>
l ers</w>
n al</w>
olu tionary</w>
pl ed</w>
super vis
suppli ers</w>
xen ophobia</w>
Di eu</w>
au lt</w>
dai ry</w>
el la</w>
f lag</w>
n esty</w>
pri mes</w>
re alised</w>
renseign ements</w>
semb ler</w>
trans action</w>
Europ éenne</w>
imag ination</w>
inscr its</w>
intimid ation</w>
loc ated</w>
nor male</w>
wo od</w>
Neighbour hood</w>
ai ming</w>
aper ç
ch ur
do ive</w>
dynam isme</w>
gi g
isol ement</w>
N ext</w>
Na pol
excus es</w>
fond ations</w>
hand led</w>
pass és</w>
plur alism</w>
reconna issent</w>
souff ert</w>
G onz
Goog le</w>
ac u
att ach</w>
con jonc
fre quent</w>
li ence</w>
rec ul
work place</w>
éventu els</w>
Monténé gro</w>
S am
alleg ed</w>
dic t</w>
fur ent</w>
mon ie</w>
souha its</w>
appréci é</w>
col ère</w>
criti quer</w>
dé montrent</w>
expand ed</w>
ich et</w>
manifes ter</w>
re viend
won der
A part</w>
B en</w>
Bel grade</w>
Qu a
aci ties</w>
arri vent</w>
ban ana</w>
conv éni
déb lo
déploy er</w>
détail lées</w>
instruc tions</w>
mar ins</w>
may be</w>
offic ers</w>
so oner</w>
tend ency</w>
toxi ques</w>
tril lion</w>
vi gou
élé ment
Gö te
Rev olution</w>
ali for
contre façon</w>
fail ures</w>
gagn é</w>
gu ard</w>
h a</w>
in convéni
manifest ants</w>
mem ory</w>
popul istes</w>
res olu
se ize</w>
ten eur</w>
A I</w>
T V</w>
ap ais
délic ate</w>
for ce
law yers</w>
mer credi</w>
mono polies</w>
pho to
ra f</w>
ver sions</w>
ces sez</w>
cland estin
imp acts</w>
popul aires</w>
reme dy</w>
trans mis</w>
viol ated</w>
é tri
évo que</w>
Mill énaire</w>
Netanyah u</w>
V el
abol ished</w>
d op
dan o
fa ther</w>
for th</w>
forê t</w>
intellig ente</w>
pers on
prev ail</w>
apparten ant</w>
essay ons</w>
issu ing</w>
rid icul
si v
th row</w>
Göte borg</w>
auth enti
b attre</w>
re conci
t eux</w>
assist ons</w>
dou bl
délic at</w>
liber ty</w>
off ences</w>
our ing</w>
quali fication</w>
su ivent</w>
thir dly</w>
Flor ence</w>
I cel
be ars</w>
continu ons</w>
contr aint</w>
facil itation</w>
initi ate</w>
l ays</w>
nor ms</w>
perp étu
produ ite</w>
prépar atifs</w>
rejec ting</w>
bâti ment</w>
cro ient</w>
func tional</w>
lan der</w>
onn els</w>
persuad é</w>
reconn ue</w>
approuv ons</w>
ch air
communic ate</w>
dis covered</w>
il legally</w>
irak ien</w>
respec tifs</w>
ré sid
de grad
earth quake</w>
envisag é</w>
shoc k</w>
tis m</w>
D aph
Demo crat</w>
abol ish</w>
c our</w>
ent ails</w>
fluctu ations</w>
graph y</w>
i ka</w>
indu b
os ting</w>
substitu tion</w>
sympath ie</w>
te ga</w>
S ta
accue ille</w>
mon str
poursu ivent</w>
soign eusement</w>
unil ater
électri que</w>
C resp
Cresp o</w>
Mand elson</w>
Vo ici</w>
arch ie</w>
clu bs</w>
compos ante</w>
conn ais</w>
dis positifs</w>
fant as
frapp e</w>
inspir ation</w>
pl ate
prosp ère</w>
rec ul</w>
ré examen</w>
spec trum</w>
E ar
Sou thern</w>
automati quement</w>
bloc ked</w>
néer landaise</w>
Gu inée</w>
N ab
Rapport eur</w>
accum ulation</w>
accus ation</w>
au to</w>
contrô lée</w>
cor rom
dérou le</w>
faç ons</w>
lim ités</w>
predic table</w>
pro prement</w>
rec ords</w>
reform ing</w>
sur vivre</w>
tril o
co eur</w>
cré ativité</w>
céré ales</w>
enti ties</w>
indemn isation</w>
indépend antes</w>
multination als</w>
pa k
sy ri
atti ré</w>
fon der</w>
fran c</w>
litt ér
massac res</w>
désign ation</w>
eter inary</w>
juris prudence</w>
marg in</w>
newsp aper</w>
pau vre</w>
renew al</w>
Th ough</w>
ac commod
app ing</w>
clai ming</w>
fer mes</w>
har ass
kur de</w>
m agn
ony me</w>
prosper ous</w>
re di
refus ent</w>
représent é</w>
symbo l</w>
H i
S ous</w>
demonstr ating</w>
mod ulation</w>
nom s</w>
sm u
sou pl
boy cot
célè bre</w>
ex poser</w>
for ums</w>
transf érer</w>
Bal i</w>
c éder</w>
ex tin
h at
jun ction</w>
justifi ées</w>
An k
B oli
C hile</w>
Nu clear</w>
Si erra</w>
Stre et</w>
accep tés</w>
compéti tif</w>
impos ée</w>
indivi du</w>
offici els</w>
Conserv ative</w>
E P</w>
T ony</w>
Ti bet
allég ations</w>
cau tion</w>
coloni al</w>
figu rer</w>
norm alement</w>
notic ed</w>
po sure</w>
reconna issons</w>
ré per
Med ina</w>
ag o
all er
conclu ding</w>
exer t</w>
l o</w>
pak istan
po table</w>
spéci ales</w>
tri gg
y en</w>
arrê té</w>
compét ents</w>
cover age</w>
ener gies</w>
excessi f</w>
port ef
régul ateurs</w>
Proc ess</w>
accor dent</w>
apparten ance</w>
clari fied</w>
cont ag
fin ished</w>
ing redi
lis ted</w>
pan el</w>
référ ences</w>
B ah
C lau
My an
Myan mar</w>
continu ous</w>
contraign ante</w>
cooper ative</w>
différ ends</w>
déplac ées</w>
examin ée</w>
fl ou
infec tion</w>
lu xembour
ma fi
rapid ité</w>
Bon ino</w>
Jew ish</w>
Reg ul
dis advantage</w>
nation alist</w>
pens é</w>
port foli
somm ets</w>
vill age</w>
assoupl issement</w>
b é
bl ack
compens ate</w>
contraign antes</w>
defini tive</w>
smar t</w>
you gosl
équip es</w>
aci er</w>
annu ally</w>
connec tions</w>
def ended</w>
fle ets</w>
géo politique</w>
leg acy</w>
lég èrement</w>
postpon ed</w>
prag matique</w>
pre gn
um p
éd é</w>
Or tega</w>
P R
Pro gress</w>
b old</w>
hop ing</w>
mas sif</w>
s ées</w>
sh o
succ esses</w>
vi demment</w>
weak ened</w>
Is lands</w>
acad emic</w>
acqui red</w>
appar u</w>
prefer ences</w>
quanti ties</w>
rein forcing</w>
serv i</w>
spéci aux</w>
suspec t</w>
symboli que</w>
ti fication</w>
Ky i</w>
drin king</w>
déplac ement</w>
engine ering</w>
ho li
l end</w>
meu rent</w>
parliament arians</w>
rejo ins</w>
revê tent</w>
scep tiques</w>
swi f
termin é</w>
wis dom</w>
H aut</w>
adap té</w>
dis armament</w>
déc ev
har der</w>
sensibil ité</w>
sent ent</w>
Co x</w>
S everal</w>
ativ ity</w>
expen ses</w>
mar ri
mis s</w>
redun dan
tr é
O u</w>
P A</w>
adress ée</w>
ambiguï té</w>
benef ited</w>
educ ated</w>
just ment</w>
ma d</w>
mix ed</w>
rejet ée</w>
weap on</w>
Fin ances</w>
Jer usalem</w>
Nor way</w>
Y é
a sur
appell ent</w>
audiovisu al</w>
compéti tifs</w>
idé ologique</w>
imp unité</w>
man quent</w>
symp t
wonder ful</w>
élev eurs</w>
Malm ström</w>
abouti ss
adress é</w>
auc uns</w>
bo osting</w>
c ouvert</w>
che aper</w>
disap pointment</w>
dé part
développ ée</w>
gar di
impres sive</w>
migr ations</w>
recogn ising</w>
str ange</w>
tal ent</w>
wat ch</w>
dev oi
er ian</w>
nô tre</w>
oppos ée</w>
pertin ente</w>
prag mati
qu ants</w>
ri re</w>
J ér
To gether</w>
ab at
ag ent</w>
g res
sal aries</w>
tol érer</w>
un ités</w>
Cu ban</w>
H ist
Ré serve</w>
d rop
deliber ately</w>
depend ing</w>
distor tions</w>
exis ted</w>
in ability</w>
min ing</w>
rati onnelle</w>
C alifor
ear marked</w>
fa stes</w>
li hood</w>
mer cure</w>
mobil ise</w>
ref using</w>
spir itu
transpar entes</w>
B ill</w>
ad ol
as simil
car tes</w>
do té</w>
du ly</w>
modern iser</w>
renouv ellement</w>
ré pres
sl o</w>
soupl esse</w>
Balk an</w>
K i
appli qués</w>
condam ne</w>
emb arrass
l également</w>
mer it</w>
no ir</w>
pre t
ss en</w>
y right</w>
Nic ol
O slo</w>
continu ity</w>
d t</w>
h ad
qu art</w>
s on
él ites</w>
Ank ara</w>
Mo ham
in ventions</w>
occup és</w>
per mission</w>
polici ère</w>
Mc K
assu rée</w>
cer ve
cre ditors</w>
décou lent</w>
enregistr és</w>
fin landaise</w>
illég ales</w>
personn els</w>
preser vation</w>
prot ège</w>
Col lege</w>
Grou pe</w>
Su u</w>
con tiennent</w>
dél its</w>
e ira</w>
in effective</w>
journ al</w>
li ve
o lig
peac e
privileg ed</w>
reven di
tec h</w>
G od</w>
flexi bles</w>
fran kly</w>
offici ally</w>
sacrific es</w>
soulev és</w>
struc tured</w>
wee k
Jér usalem</w>
Y emen</w>
affec tent</w>
ap ers</w>
cap acities</w>
déf aill
financi ally</w>
licenci ements</w>
man oeuvre</w>
mo thers</w>
naturel s</w>
ou l</w>
produ ces</w>
provi ennent</w>
ther ing</w>
vo d
í n</w>
An nex</w>
Puis que</w>
cur y</w>
dee pening</w>
flé au</w>
fon te</w>
in put</w>
inter pr
o dy</w>
simultane ously</w>
tar es</w>
vacc ines</w>
ver sible</w>
Ab k
approuv és</w>
bar ak</w>
co ast</w>
concern ée</w>
gr ound
li gh
re putation</w>
re turning</w>
rés ister</w>
speci fied</w>
v ég
Br itan
F ont
IN I</w>
Mul der</w>
acqui re</w>
cherch é</w>
cor ner
dé sol
et ers</w>
l l
olo gies</w>
reform ed</w>
smu gg
étonn ant</w>
évo quée</w>
ab sol
ax ée</w>
bre aks</w>
dés équilibre</w>
execu tion</w>
hum ans</w>
inqui étant</w>
larg es</w>
ob é
ter reur</w>
C ath
Chac un</w>
Slov ak</w>
cl on
const at</w>
dev ote</w>
mis leading</w>
posi tively</w>
rem it</w>
se as
signific atifs</w>
Dur ant</w>
asur y</w>
aus p
competi tors</w>
compl ement</w>
en lè
entr ent</w>
ex terne</w>
sp ire</w>
sur vey</w>
susp endre</w>
v ar
critic ise</w>
cro w
de ployment</w>
déc ouvert</w>
eas ing</w>
escal ade</w>
forec asts</w>
méditerran éens</w>
reconci le</w>
st an
t au
ach èvement</w>
challeng ing</w>
menac ent</w>
num éro</w>
sag esse</w>
sec rets</w>
ti re</w>
form ula</w>
g este</w>
inspi red</w>
ven tive</w>
yiel d</w>
accomp agne</w>
chypri ote</w>
d ité</w>
révél er</w>
Ch á
Fri ed
Le ague</w>
S ac
garantiss ent</w>
hec tares</w>
jou issent</w>
mainstre aming</w>
periph eral</w>
én um
bre fs</w>
infec tions</w>
ir responsable</w>
réf ère</w>
è lent</w>
Camer on</w>
E A</w>
a to</w>
abil isation</w>
augment ant</w>
deli vering</w>
indé ni
kno wing</w>
motiv ated</w>
physi ques</w>
s ine</w>
second aire</w>
v ainc
CF P</w>
Di am
F ab
blo quer</w>
diff é
f ounding</w>
hypocr isie</w>
industri alisés</w>
né fastes</w>
onn ent</w>
sol ar</w>
traç abilité</w>
éventu el</w>
Direc tor</w>
advoc ated</w>
bann ing</w>
belong ing</w>
demander ai</w>
empê chent</w>
lever age</w>
ma isons</w>
ne o</w>
qualit ative</w>
ré vol
Chil i</w>
ID A</w>
cigaret tes</w>
in ex
multilatér ales</w>
oubli é</w>
réun is</w>
transl ation</w>
S aint</w>
acceler ate</w>
bal ancing</w>
ca th
introdu ites</w>
or able</w>
purch asing</w>
Ch ange</w>
Ch er
Chá vez</w>
mobi les</w>
multi tude</w>
sauve garder</w>
un is</w>
Ad justment</w>
H au
bét ail</w>
connexi on</w>
domin ante</w>
ear n</w>
establis hes</w>
fru it
oblig é</w>
pl ing</w>
pre station</w>
pre sum
Gol fe</w>
M at
de fault</w>
depri ved</w>
ro i</w>
s én
sacri fice</w>
vég ét
aler te</w>
aw ait</w>
b elle</w>
con vey</w>
conf érences</w>
cor po
disap pointing</w>
dé pour
effectu ées</w>
matéri aux</w>
pétro liers</w>
souver ains</w>
ach ever</w>
automati c</w>
empê ché</w>
g el</w>
neighb ors</w>
pre stat
radi ation</w>
serv ing</w>
sett led</w>
spectac ulaire</w>
w a
autonom ous</w>
cy ber
equip ped</w>
ess aie</w>
exce ed</w>
hi de</w>
indign ation</w>
libér ales</w>
offer tes</w>
vie ille</w>
Gonz á
O ost
W og
Wog au</w>
accep tent</w>
b ris
identi fying</w>
monn aies</w>
neutr al</w>
optimis me</w>
parti el</w>
pharmaceu tiques</w>
ral enti
ri ers</w>
rup ture</w>
tri als</w>
tri p</w>
v ain</w>
we ather</w>
C ari
anis me</w>
consolid ated</w>
nation alistes</w>
r ue</w>
Co el
S ter
affirm ant</w>
com prise</w>
cor rupt</w>
dis proportionate</w>
im minent</w>
lai tiers</w>
protection ist</w>
ul time</w>
E quality</w>
Fin alement</w>
Ro th
Yé men</w>
assum ption</w>
be an</w>
contr ainte</w>
enseign ants</w>
incid ences</w>
k ets</w>
lo ve</w>
mit tedly</w>
ori quement</w>
ph ases</w>
pl enty</w>
sib ilité</w>
voyag eurs</w>
ét ouff
Coel ho</w>
F A
Oost lander</w>
bank rup
c attle</w>
cin quante</w>
contraign ants</w>
cr u</w>
h ali
harmoni zation</w>
re trouvent</w>
rec ouv
A ung</w>
Abk haz
F ord</w>
Nab uc
Wor king</w>
administr atif</w>
bi es</w>
ch ons</w>
dé loyale</w>
exig eant</w>
fic atif</w>
in hér
it e
lour des</w>
opportu ne</w>
revend ications</w>
E R</w>
Nabuc co</w>
S oy
arm ements</w>
deteri oration</w>
en ons</w>
h in
invest i</w>
jour ney</w>
médec ine</w>
on ic</w>
pas sera</w>
re alize</w>
sembl erait</w>
spéci alistes</w>
tur cs</w>
un d
viv ants</w>
Administr ation</w>
Cert ainly</w>
Lu k
abor dée</w>
dec lining</w>
enti té</w>
in spire</w>
j ad</w>
optimis m</w>
promp t</w>
reconn us</w>
simpli fying</w>
subsid y</w>
sur croît</w>
Bur undi</w>
absor ption</w>
at z
attemp ted</w>
dirig é</w>
g aining</w>
in directement</w>
m atu
mo derni
p ity</w>
pic k</w>
strugg ling</w>
swi ft</w>
Somali a</w>
Y esterday</w>
avoc ats</w>
cont ent
craign ent</w>
cy cl
handicap és</w>
permettr aient</w>
s ain</w>
secut or</w>
stri king</w>
œuv res</w>
Coun tries</w>
G ender</w>
Haï ti</w>
arbitr ary</w>
diffé remment</w>
paci fiques</w>
plant ation</w>
pris ing</w>
voy ages</w>
yougosl ave</w>
B lan
M anu
Nor v
Norv ège</w>
accep ts</w>
counter parts</w>
exerc ée</w>
mentionn ées</w>
nav ire</w>
newsp apers</w>
tic les</w>
T or
con junction</w>
dé posée</w>
entrepreneu ri
ex posure</w>
minis terial</w>
ré affirmer</w>
î tra</w>
Car di
Comm uni
Q E</w>
comb at
dis ability</w>
dé signé</w>
financi èrement</w>
préci euse</w>
réclam er</w>
té moins</w>
Ar ticles</w>
I ci</w>
L ag
cy ber</w>
inst aller</w>
it ée</w>
laun ching</w>
matern ité</w>
particip ant</w>
sensi tivity</w>
subst an
teach ing</w>
un itaire</w>
wit ness</w>
A rea</w>
L ul
Quart et</w>
Sustain able</w>
apo log
avertiss ement</w>
cô tières</w>
fil ms</w>
min ors</w>
s ons</w>
transatlanti ques</w>
weak ening</w>
accep tons</w>
ban ais</w>
compl ementary</w>
famili ales</w>
go od
imp unity</w>
l av
reço it</w>
sh el
stat u</w>
sé min
B yr
Jord an</w>
capit alist</w>
collec tives</w>
dé livr
engend rer</w>
frau dul
pu y</w>
Cardi ff</w>
O ver
capit ales</w>
collec tif</w>
effor c
engag ées</w>
forc ément</w>
hu ile</w>
ine jad</w>
vacc in
Gol d
P eter</w>
Secré taire</w>
ajust ements</w>
comm o
ed t</w>
frau des</w>
judg ments</w>
menac és</w>
pl ate</w>
publis h</w>
Gonzá lez</w>
col d</w>
cour ageous</w>
distor sion</w>
eli gible</w>
par faite</w>
rent abilité</w>
cabin et</w>
emb lée</w>
exer gue</w>
ingr ad</w>
nu ire</w>
o zone</w>
pro ving</w>
précis é</w>
rest oring</w>
spre ading</w>
For ce</w>
Perspec tive</w>
Pr ague</w>
détermin és</w>
ex it</w>
inform el</w>
mar quer</w>
pro ves</w>
sign aux</w>
ver dict</w>
él ever</w>
Le on
SW IF
comp arer</w>
compren ons</w>
emprun ter</w>
enem y</w>
formul ated</w>
inf érieure</w>
intéress ées</w>
l ation</w>
mirac le</w>
r ship</w>
st edt</w>
tur bul
O ù</w>
T aï
Vel zen</w>
appare ils</w>
aud aci
de fici
gu i
intéress antes</w>
lég alité</w>
pack aging</w>
pres tige</w>
requ ise</w>
b arely</w>
chu té</w>
communi qué</w>
cop yright</w>
divor ce</w>
fair ness</w>
justifi able</w>
res ist</w>
sun n
L ad
SWIF T</w>
bureaucrati ques</w>
compl aint</w>
compét ent</w>
contradic toires</w>
de emed</w>
ex pose</w>
h l</w>
head ed</w>
lic ite</w>
ounc ed</w>
personn alité</w>
re actions</w>
re production</w>
rés ist
touch ant</w>
abst ain</w>
att ended</w>
aéro port</w>
b lu
confron ted</w>
eng lob
excessi vely</w>
mach in
men song
men tions</w>
sur venus</w>
univers itaires</w>
us agers</w>
week end</w>
Su preme</w>
arch y</w>
b elles</w>
médic ale</w>
radic alement</w>
ro c
scandal eux</w>
share holders</w>
trim ental</w>
un sustainable</w>
âg és</w>
é bran
H ier</w>
bankrup t
comm enter</w>
conserv ateur</w>
oper ates</w>
E GF</w>
I P</w>
Un less</w>
at ar</w>
id en</w>
pas sive</w>
présid ences</w>
R and
ch i</w>
dis appear</w>
fron ts</w>
k ill</w>
médic al</w>
r attr
reas sure</w>
rec ital</w>
scr utin</w>
spe aks</w>
subs cri
v ag
vou lions</w>
évo qués</w>
M et
Re public
comp atri
conf ère</w>
inform atique</w>
milit arisation</w>
p us</w>
pir acy</w>
reg ain</w>
sav ed</w>
secu ted</w>
stre et</w>
É videmment</w>
ép is
Azerb ai
UC LAF</w>
ag a</w>
co erci
eng endre</w>
financ ées</w>
honn êtes</w>
mè nent</w>
p atern
prin t</w>
sent ences</w>
sû res</w>
uti lement</w>
D er
Font aine</w>
G or
Mit ch
ausp ices</w>
bilatér al</w>
conseill er</w>
envelopp e</w>
epi demic</w>
inqui éter</w>
invit ons</w>
shoc ks</w>
struc tur
ann on
cô te</w>
pr icing</w>
vacc ine</w>
Ch an
Lul ling</w>
T rés
V il
broadc asting</w>
de v</w>
flot tes</w>
gener ating</w>
lingu istiques</w>
psych ological</w>
terri bles</w>
P acte</w>
agre eing</w>
ai ting</w>
cris y</w>
insis ted</w>
observ é</w>
politici an</w>
sond ages</w>
Qu ite</w>
Sen ate</w>
ame works</w>
collec tiv
contradic tory</w>
criti ci
doig t</w>
entrav er</w>
eth ics</w>
fav oured</w>
li ti
légu mes</w>
manifes té</w>
org ans</w>
soulign ant</w>
typ ical</w>
Sahar an</w>
accél ération</w>
ad o</w>
destro ying</w>
entr ave</w>
of i</w>
war ned</w>
dé tec
détail lé</w>
ennem i</w>
g ents</w>
k id
oblig er</w>
r assurer</w>
renforc ent</w>
rev it
th on</w>
ad just</w>
bi d</w>
bound aries</w>
cul min
d jan</w>
de trimental</w>
en ra
iss er</w>
min i</w>
r endra</w>
substan tive</w>
B iden</w>
C a
ai red</w>
alloc ate</w>
apparti ennent</w>
dis sidents</w>
in ju
interro ger</w>
mer cury</w>
offer te</w>
pl aide</w>
refl éter</w>
restric ting</w>
ri ce</w>
ridic ule</w>
s lav</w>
wel ve</w>
Any one</w>
Icel and</w>
Mitch ell</w>
cl ini
compar ative</w>
dé libér
e ability</w>
swif tly</w>
équilib rer</w>
ad map</w>
ai dé</w>
bomb ar
br ill
dé ception</w>
ent ente</w>
eph one</w>
fac tions</w>
fi ting</w>
mar quée</w>
secu rities</w>
sett le</w>
un clear</w>
ég ale</w>
Ch air</w>
K alin
ab a
ciproc ité</w>
co in</w>
décri re</w>
em po
exerc ent</w>
législ ateurs</w>
per mits</w>
pré fé
t aient</w>
épi démi
Roth ley</w>
an dum</w>
di ab
el ings</w>
fr ame</w>
in certitudes</w>
min oritaires</w>
rencontr ent</w>
restre indre</w>
ré ciprocité</w>
shar ply</w>
sinc ères</w>
toxic om
Plat h</w>
bloc age</w>
for g
hypo crisy</w>
li ft</w>
mé fiance</w>
nordi que</w>
o we</w>
or ly</w>
réguli ère</w>
anticip ated</w>
borro wing</w>
envisag ée</w>
inten s
it ors</w>
p alu
transfrontali er</w>
wor sen
ô les</w>
Trés or</w>
adress ées</w>
antibio tiques</w>
emb race</w>
n ées</w>
top ical</w>
us ine</w>
Gu at
R ich
ev il</w>
exig e
mentionn ée</w>
p one</w>
qu a</w>
r ö
éco systèmes</w>
Byr ne</w>
P in
an as</w>
cath oli
f ils</w>
j ord
liber ties</w>
nation ality</w>
pri mer</w>
ris en</w>
Serbi an</w>
bloc king</w>
condam nés</w>
dirig ée</w>
ra rely</w>
ro oted</w>
écl at
ac ute</w>
constru it</w>
direc teurs</w>
dis me</w>
dé posées</w>
forc é</w>
fructu euse</w>
ol ing</w>
pe ines</w>
re urs</w>
sh ed</w>
strong est</w>
toler ate</w>
troisi èmement</w>
K ofi</w>
Republic ans</w>
Sch rö
appropri ately</w>
e e
lang es</w>
mer its</w>
potenti elle</w>
retomb ées</w>
si lent</w>
traver se</w>
En core</w>
G s</w>
R A</w>
R ad
clo s</w>
compren ant</w>
d in
douani ères</w>
dépu tée</w>
fav or</w>
inter opér
men és</w>
rais emb
sup érieurs</w>
tel ephone</w>
un ite</w>
D r</w>
G arc
No ël</w>
am pli
cau tious</w>
com for
contribu ant</w>
export ateurs</w>
fe elings</w>
hol der</w>
po orly</w>
sett lements</w>
sti m
suppos edly</w>
équip ement</w>
Britan niques</w>
Rand zio</w>
ax e</w>
bour si
br û
enqu ê
eu s</w>
express ly</w>
pè se</w>
under way</w>
wis hing</w>
Cambo dia</w>
Garc ía</w>
Her man</w>
depend ency</w>
l ler</w>
moun tain</w>
multilatér ale</w>
mutu el</w>
ré viser</w>
Nouv elle</w>
adol esc
ari anism</w>
cl in
dec omm
dis tant</w>
dé fau
défau ts</w>
har c
incont est
post pone</w>
prof itent</w>
smoo th</w>
travail liste</w>
Guat em
ap port</w>
condem ning</w>
constitu ents</w>
deploy ed</w>
di alogues</w>
fr ameworks</w>
franç aises</w>
génér alisée</w>
h â
journ aliste</w>
kilom ètres</w>
précéd é</w>
réalis ations</w>
Singap ore</w>
ali zing</w>
ban kers</w>
dis tric
dispos ant</w>
engag ent</w>
ev olution</w>
ig o</w>
orthodo x
représent és</w>
trom p
élector ales</w>
L eurs</w>
Pers onnellement</w>
S D
Un like</w>
absten u</w>
c lic
carri ers</w>
co d</w>
cons entement</w>
elimin ated</w>
ing rédi
opoulo s</w>
worth while</w>
Am nesty</w>
Bour langes</w>
J eux</w>
Somali e</w>
affec tées</w>
as e
ass ain
chim ent</w>
desti n</w>
l en
minim ale</w>
mort ality</w>
pro minent</w>
re placing</w>
slov aque</w>
Kalin ingrad</w>
démo graphiques</w>
encourag e
ic ed</w>
illu sions</w>
lo an</w>
organis ing</w>
rencontr és</w>
s che
vo terai</w>
aris en</w>
arsen al</w>
augment ations</w>
cour ante</w>
cr is</w>
fi ants</w>
fix ée</w>
intoler able</w>
re posant</w>
re tenue</w>
répar ation</w>
souver aine</w>
sus pend</w>
ï ka</w>
Christ mas</w>
Key nes</w>
classi que</w>
organis ées</w>
pertin ence</w>
posi ons</w>
post aux</w>
A G
Communi ties</w>
K au
ad ed</w>
blan chiment</w>
decre ase</w>
econom ist</w>
enc ad
ex es</w>
excep tionnelle</w>
h eur</w>
mur dered</w>
no ire</w>
oppos ing</w>
pen sioners</w>
s co
thou ghts</w>
Beh rend
Wh at
apo lo
depar ture</w>
er ies</w>
gro ss
o sis</w>
rais onnement</w>
st ables</w>
under lined</w>
Behrend t</w>
Concer ning</w>
al ter</w>
ali ve</w>
anim ales</w>
appro ving</w>
atten tive</w>
cour ses</w>
do tée</w>
for tune</w>
gaz o
optimis te</w>
per dent</w>
perman ents</w>
poursu i
produ ites</w>
sign ale</w>
summar y</w>
them e</w>
é changer</w>
Ah mad
Dim as</w>
Esp érons</w>
Ev ans</w>
Q atar</w>
Taï wan</w>
a ques</w>
as c
form elle</w>
logici els</w>
mili eux</w>
mo tor
palu disme</w>
rou tiers</w>
Ag ain</w>
awar ded</w>
criti qué</w>
infring ements</w>
inspec tors</w>
tim ing</w>
é mises</w>
E h</w>
In novation</w>
compe ting</w>
cou ps</w>
en berg</w>
expres ses</w>
pl antes</w>
tab ling</w>
urb aine</w>
wan ting</w>
B un
Guant an
T ob
Ver ho
b le
cir cu
inv ités</w>
l entement</w>
provo que</w>
sub ordin
Tro is</w>
arrest ation</w>
as hed</w>
co financing</w>
confir m
hat red</w>
hu mili
menac é</w>
organis ms</w>
te ams</w>
Schrö der</w>
Verho f
ad here</w>
am o</w>
c a</w>
d esp
famili al</w>
figur ant</w>
pri de</w>
recei ves</w>
ren voi</w>
s adly</w>
st ering</w>
trag iques</w>
Egyp tian</w>
Le one</w>
V I</w>
assu rés</w>
con cours</w>
de ar</w>
dis regard</w>
dou ter</w>
gri ppe</w>
gu ement</w>
insol v
intégr alité</w>
lif ting</w>
retour ner</w>
touch ed</w>
trac eability</w>
urb ain</w>
vit ally</w>
w al
Verhof stadt</w>
con gestion</w>
cru el</w>
dis simul
déplac er</w>
ent endus</w>
fac tu
fronti er</w>
laun dering</w>
lo t
main tient</w>
relev ance</w>
Conserv atives</w>
D ell</w>
Guantan amo</w>
circ le</w>
com promettre</w>
in condi
islam istes</w>
refr ain</w>
rend er</w>
sp her
ver rons</w>
étro it</w>
Con ci
M ou
P eter
V ir
amélior ant</w>
c ing</w>
consul t</w>
import er</w>
import és</w>
menac ée</w>
she ep</w>
stu pi
P V
d ating</w>
entr é</w>
ici le</w>
israéli ennes</w>
judg ed</w>
partag é</w>
parti te</w>
préoccup er</w>
redun dant</w>
Me dic
autoris ée</w>
ennem is</w>
entraî nent</w>
fl am
g esti
inspec teurs</w>
re pos</w>
rest eront</w>
véhic ule</w>
é ma</w>
Singap our</w>
al together</w>
con joint</w>
distingu ish</w>
détru it</w>
in nomb
off ri
ordin aire</w>
pap ers</w>
seri ousness</w>
slow down</w>
Commun ication</w>
Regi ons</w>
ci ting</w>
consult atif</w>
d are</w>
defini tions</w>
du c</w>
hô pit
hôpit aux</w>
m éri
qu oi
re unification</w>
s omb
F EM</w>
G ar
consul té</w>
entrepreneu rship</w>
innomb rables</w>
introdu ite</w>
secu red</w>
strai ght
supran ation
sév ère</w>
Lang en</w>
Qu els</w>
aw aiting</w>
br ain</w>
cro ître</w>
fisher y</w>
lig ence</w>
mi ques</w>
num ériques</w>
pou sse</w>
ré gn
un satisfactory</w>
work able</w>
én dez</w>
Jew s</w>
accor dées</w>
ad her
chanti ers</w>
cit ed</w>
it ate</w>
nis tri
pu e</w>
respectu eux</w>
z be
ét er
J ames</w>
TE S</w>
an cy</w>
as ant</w>
belong s</w>
du rer</w>
déc ouvrir</w>
effec tif</w>
recru tement</w>
uss y</w>
ét end</w>
C ologne</w>
I mag
Li b
ap ti
ar chi
hé sit
intermédi aires</w>
restau ration</w>
réalis able</w>
rév èlent</w>
sah ari
satis faite</w>
volatil ity</w>
L ama</w>
S c
ad mitted</w>
ais ément</w>
aph teuse</w>
appli quant</w>
at en</w>
com posé</w>
en voie</w>
hand le</w>
now adays</w>
néglig er</w>
provi ent</w>
renfor cera</w>
ret ail</w>
rigou reux</w>
Al i</w>
Is lande</w>
adap ting</w>
adap tés</w>
air line</w>
compli qué</w>
cre ativity</w>
d rap
domin ance</w>
ell i</w>
expec ting</w>
sembl ables</w>
ç ait</w>
Acc ord
adul ts</w>
chapit res</w>
effec tifs</w>
ex agg
faus se</w>
l v
nour rir</w>
pi ec
sub ord
tari f
trans form</w>
trilo gue</w>
under stands</w>
Allem ands</w>
Azerbai jan</w>
F at
T andis</w>
agres sion</w>
ap est</w>
confin ed</w>
der ons</w>
dr ame</w>
fai rer</w>
g ê
garanti s</w>
in tra</w>
pharmaceu tique</w>
re vue</w>
refer endums</w>
ro bo
ten ait</w>
tour nant</w>
Cari b
contr aires</w>
extrem ism</w>
in aug
pre mature</w>
tion ality</w>
v œu
écras ante</w>
Ahmad inejad</w>
Conci liation</w>
Lam fal
b arr
bal tes</w>
choc s</w>
ci r</w>
concentr ations</w>
déb arr
fourn issant</w>
i ans</w>
matern elle</w>
méri di
no ci
pil ote</w>
ult érieurement</w>
vœu x</w>
N ombre</w>
P C</w>
Par agrap
Rich ard</w>
St and
b ass
particip ated</w>
produc tif</w>
pré ventive</w>
w a</w>
z y
Ar mé
Bro wn</w>
K all
Q a
barb ari
brut ale</w>
ch asse</w>
hom ologues</w>
in en</w>
leng thy</w>
man e</w>
or ph
pl aît</w>
ther to</w>
uni r</w>
up date</w>
v enture</w>
écar ts</w>
él o</w>
Carib bean</w>
IL O</w>
M arg
Re agan</w>
S av
ban anas</w>
correspon dent</w>
derog ation</w>
estab lement</w>
fu se</w>
st ret
system ic</w>
â le</w>
Alb anian</w>
What ever</w>
b low</w>
bio technology</w>
bran ches</w>
ci bles</w>
in efficace</w>
ré sidents</w>
whol ly</w>
D ru
H o
Qa eda</w>
ex porting</w>
fond ateurs</w>
iter ont</w>
param ètres</w>
persuad er</w>
reconn ues</w>
tarif aires</w>
Alex ander</w>
Azerb aï
Con sider</w>
In te
Tr ichet</w>
Yu go
Yugo slav</w>
conc ession</w>
i ennes</w>
impl ant
incorpor ation</w>
pro visi
pu issante</w>
r amener</w>
relev é</w>
vers é</w>
Bö sch</w>
Pro f
Quel ques</w>
b af
caractér ise</w>
circul er</w>
depart ments</w>
proportion ality</w>
péri phériques</w>
s ages</w>
scen e</w>
t endant</w>
ti endrons</w>
tra jec
voul aient</w>
Cambo dge</w>
OM S</w>
civil isations</w>
collec ted</w>
diver gence</w>
l y
n ements</w>
proportionn alité</w>
rest ored</w>
é mo
ér ations</w>
afflu x</w>
al lié</w>
beg ins</w>
dis appeared</w>
dérou lement</w>
four nie</w>
hormon es</w>
inc ite</w>
interf ere</w>
muni tions</w>
on ym
réguli ers</w>
s cour
slaugh ter</w>
Ger mans</w>
acqu ise</w>
b ail
bloc k
compati bilité</w>
conduc ting</w>
emp t</w>
la is
reason ably</w>
ré publique</w>
signat aires</w>
wel l
ac commo
conven i
dra ws</w>
du le</w>
p éd
r ab
ré sumer</w>
to ys</w>
vi ability</w>
êt eté</w>
Al muni
Almuni a</w>
P lut
dé faite</w>
expres sions</w>
honn êteté</w>
im balance</w>
in ent</w>
ko v</w>
pil otes</w>
pos ing</w>
remar qué</w>
soci o
tur ques</w>
as pire</w>
cre dits</w>
end rez</w>
ent able</w>
fl u</w>
im bur
innoc ents</w>
inter oper
israéli ens</w>
off ert</w>
provo cation</w>
reb elles</w>
ser be</w>
v ary</w>
A ma
LOND ON</w>
Lamfal ussy</w>
Roc ard</w>
ag irait</w>
arrog ance</w>
avi ez</w>
con fon
conf é
cou tu
fruit ful</w>
in land</w>
it ability</w>
m el
macro économique</w>
man qué</w>
re p
repr end</w>
ré acteurs</w>
vag ues</w>
ér on
Azerbaï djan</w>
Bas que</w>
Cu stom
ap ar
dev ices</w>
extrémis me</w>
fron tiers</w>
hear ings</w>
jan i</w>
pour riez</w>
rac ines</w>
radic aux</w>
redundan cies</w>
restre int</w>
ret ained</w>
desper ate</w>
fais aient</w>
hali eutiques</w>
l age</w>
land s
n ar</w>
péri ph
re imbur
the red</w>
totalit arian</w>
transl ated</w>
appreci ated</w>
exerc é</w>
form ellement</w>
lin king</w>
mar in</w>
perç o
re posent</w>
the re
ti ennes</w>
tw enti
Fu k
Kar as</w>
PC P</w>
R a
Rü big</w>
Sch mid
Thom as</w>
alu ation</w>
au rez</w>
bo x</w>
cont es
counterfe iting</w>
discrimin atoire</w>
har sh</w>
manufac ture</w>
nan o
souver ain</w>
volu mes</w>
ê t</w>
Cher nobyl</w>
Luk as
Mar t
appare il</w>
ban qui
bloc s</w>
co in
construc teurs</w>
contribu eront</w>
pay é</w>
progress iste</w>
re jets</w>
rur ale</w>
rédu ites</w>
é ances</w>
S ir</w>
atte ind
au ti
contin ental</w>
der ait</w>
derog ations</w>
dur ation</w>
est ly</w>
extrem ists</w>
pul l</w>
res semble</w>
vac ances</w>
Mc C
Plut ôt</w>
am p</w>
chan nel</w>
collè ge</w>
deliber ations</w>
entraî nerait</w>
forese en</w>
ha el</w>
ho ods</w>
hon orer</w>
oeu v
régu lier</w>
sou ple</w>
stre am</w>
sur pl
économ iste</w>
éventu alité</w>
C ash
C omb
Me dia</w>
applau d</w>
artic ul
ay ez</w>
con serve</w>
dismant ling</w>
ec s</w>
er ions</w>
préal ables</w>
res ser
Fis cher</w>
L IF
Mi gu
Wi j
abatt age</w>
associ ée</w>
contribu able</w>
crédi bles</w>
elec tric</w>
gu iding</w>
hi dden</w>
im ent</w>
impos ant</w>
profess eur</w>
rigou reuse</w>
ré examiner</w>
Kur ds</w>
Sci enti
clo thing</w>
célé br
op ter</w>
per a</w>
shoul der</w>
[...]
